node {
  name: "conv1/kernel"
  op: "Const"
  attr {
    key: "dtype"
    value {
      type: DT_FLOAT
    }
  }
  attr {
    key: "value"
    value {
      tensor {
        dtype: DT_FLOAT
        tensor_shape {
          dim {
            size: 5
          }
          dim {
            size: 1
          }
          dim {
            size: 4
          }
        }
        tensor_content: "xs\030=F\235Q\276W\000\344>#f\330>\314C\366\275\351\335\257>jM5>\322\343\001>\3667Q>\304\377\327\275\373$\337>\024\264\260=h\225f=\003\010\321>\347\255\326>\252\316\017\276\364#\332=\260\260\325<\230\353\003\275\310>\247\276"
      }
    }
  }
}
node {
  name: "conv1/bias"
  op: "Const"
  attr {
    key: "dtype"
    value {
      type: DT_FLOAT
    }
  }
  attr {
    key: "value"
    value {
      tensor {
        dtype: DT_FLOAT
        tensor_shape {
          dim {
            size: 4
          }
        }
        tensor_content: "\000\000\000\000\000\000\000\000\000\000\000\000\000\000\000\000"
      }
    }
  }
}
node {
  name: "conv2/kernel"
  op: "Const"
  attr {
    key: "dtype"
    value {
      type: DT_FLOAT
    }
  }
  attr {
    key: "value"
    value {
      tensor {
        dtype: DT_FLOAT
        tensor_shape {
          dim {
            size: 4
          }
          dim {
            size: 4
          }
          dim {
            size: 4
          }
        }
        tensor_content: "\007\354\200>p\006\365\275\200\326\374\274\244\001\214=@\202\370\273 \325T=\3510\326\276\250p\203\275O/\320>\204\254\342=\323\333\256\276\2502\231\275=m\265\276\210\010\330\2760\003\006\276\256p\r>\227\\\316\276\254X\270\276\250Va\276\344\t\004\276\356\324h>\206\274 \276X\232\203=\2601\211<\234\305\205\276\024u\222\276\024\231\005\276b\325v>\300\n\242\276\\\326\210\276\321\264\223>\365,\257>\0057\317\276tI\226=\242\030\234\276B\271\\>\177O\201\276\234\223\352=\027\375\331>\000\343r\273\217~\327>\206\232\026>\2049\365=$/\252\275F\350f>\353<\317>h&\212\276\362\360:\276H\017\337\275_\367\221\276\345\262\245>\240C\211\274\347\224\256>|\323i\276<\221\345=Q\203\261\276\220t`=\320@\316\275\r\354\333>\010i\026\276aJc\276\265O\225>\300O\274\274K\366|\276"
      }
    }
  }
}
node {
  name: "conv2/bias"
  op: "Const"
  attr {
    key: "dtype"
    value {
      type: DT_FLOAT
    }
  }
  attr {
    key: "value"
    value {
      tensor {
        dtype: DT_FLOAT
        tensor_shape {
          dim {
            size: 4
          }
        }
        tensor_content: "\000\000\000\000\000\000\000\000\000\000\000\000\000\000\000\000"
      }
    }
  }
}
node {
  name: "conv3/kernel"
  op: "Const"
  attr {
    key: "dtype"
    value {
      type: DT_FLOAT
    }
  }
  attr {
    key: "value"
    value {
      tensor {
        dtype: DT_FLOAT
        tensor_shape {
          dim {
            size: 4
          }
          dim {
            size: 4
          }
          dim {
            size: 4
          }
        }
        tensor_content: "\025\333\203>w%V\276\270\247]=@\270\327\274T\355\223\276\004\356\020\276T\273\262\276H\023%\276#\022\246>l\221\220\276\034B\177\276\322\364\\>\350S%\276T\260\241\275\263a\324>\342J\t\2767X\263\276\340\234\006<\t\247\335>\217O\234>x\307Y=r\320\306\276\340\313[\274nf\024>:(,>`~\222<`\350\322<\r\010\253>\227MG\276\250\375\\\275\322\306\n>\\\'\321\276\330\263\200\276\244\213\213=\327\007\252>W\305\262>+\377\322>\224\330\302\275\205\324\330\276:\342m>^J\031\276\234 \233\276\000\232\037=\310\t\216\276\245\364\303>\340\264Z\275\021\351\253>\000\000\0168\313\364\306\276\306\202j\276\2506\300\276?\374\322>\201\030\207>\364\307\211\276\272q\200\276Rjy\276T\337C\276\365\244\210>fo\025\276\244\245\324\276\030\231/\275\315F\205>5\227\306\276\024\223\324="
      }
    }
  }
}
node {
  name: "conv3/bias"
  op: "Const"
  attr {
    key: "dtype"
    value {
      type: DT_FLOAT
    }
  }
  attr {
    key: "value"
    value {
      tensor {
        dtype: DT_FLOAT
        tensor_shape {
          dim {
            size: 4
          }
        }
        tensor_content: "\000\000\000\000\000\000\000\000\000\000\000\000\000\000\000\000"
      }
    }
  }
}
node {
  name: "dense1/kernel"
  op: "Const"
  attr {
    key: "dtype"
    value {
      type: DT_FLOAT
    }
  }
  attr {
    key: "value"
    value {
      tensor {
        dtype: DT_FLOAT
        tensor_shape {
          dim {
            size: 208
          }
          dim {
            size: 16
          }
        }
        tensor_content: "\030\270\304=\224\356^=\326X\333\275\251\212\265\275\000\024J\273\244\234k=\334\366\342=b\267\021>\000[]\272\000\250\373\271\242\024k\275\207\311\255\275\024\313\326=X\376\357\275\242\370\364\275\030\250\301\274L\362\272=\237\033!\276\377\321\013\276\024\024\305=LY\t\276dc\244=\270-\021\275*vj\275\210\242~=HK\025>\310\177\223<R\"a\275mk\344\275\000\266\315=\002\234\037>\302\352\301\275,\\\335\275\020|\325\275\332\014\240=\274g\372=\032%i\275*\003\353\275Xe\'=]\360&\276*7g\275\376\235\200=.8\026>\360\014\341\275\334\312\323=\265\236\204\275&\360\034\276\364\035\020\275\314\305\021\275\026Hq\275\004\342\276=\240\340\375<0\264\027<\367+\037\276\016x0\275\2140\234=P\221<\274\270\343\340<z\235\">\377\250\241\275\373\034\347\275\030\267\246\274\010\026\r\276\000\324\3579\260y\357\274>\372r\275-1\251\275\207\211\020\2765\241\216\275\004\311\253=\244v2=\010[\377=\010-\002\276\330\034\353\274]\340\034\276\2202\000>\035%\242\275x\253\333\275\263\217\242\275\360\353!\275\340\265\273<,8\006\276\344;\364=s\350\010\276\264\203F\275\260\260\031=\272\302\221=FM\004\276~\022\003>\250[\n\276B\245\275\275\351\006\204\275\216\255\">\234\360\240=\3000\215\274z\\\260=6\266\361\275\334\026a\275\276\331*\275\354_\316\275L\273Q=H?\302=P\305\271\274\350:\032\275d\332\313\275\2606l=\007}\274\275\220\2454\274(\314U\275\243\322%\276`@\306=f\302\007\276 \304\004\274|M\322=8\301\034>\010\214A=\0143\033=N\215\201=\370\231^\275\362\\\360\275\362\372\032>\"\242\r>4\255\021=\244\0351\275j\366\034>\234\361b=\020md=(*\302=\322\327\032>\260\255\215\274~1\006\276p\240\330<\320_\333\275l,\335=\260Tj\274xC\316<H\245I=\325I\031\276D\207\320=\3435\344\275H!\240\274D\364y=^+\251\2754\306\264\275\270\216\327\275\260d\365\275\245\217\217\275^\363C\275D\213\213=\220\321\013=\2604t\275z\252\332\275T8E=\350\270\245<\300\212\005=\242\236\023>P\325\032\274\330]\037\276tq\241=+I\023\276\214*\003\276tV\257\275~,\014\276J;r\275j&\">\245.\026\276\000y\002\273\350<\331=\214U\031>8LB\275E\217\303\275\014-\271\2758t\361=\210?\200<\336\276#>\346<%\275\3447y=\320Jg=\344\335\207=\243\332\240\275\200\241T\274d\246\t\276{$\364\275X\253\360=8&\003>\364\254\014\275\360\253\006>\362\272\352\275\322t\017>\241\251\235\275X\336\003\276\343B\225\275@L\365\274\000\250\023\272\225J#\276\030\323\r=*_+\275L\375\275=\270m\373=\241R\301\275\200[\367\272H\032!\276\254\357\211\275\243\237\360\275\2402\021\275\006f >\370g\200\274,\370\035=\344RG=\222\246\240\275\004\277Y=\320B\253\275tH\034\276\000\363\257\272\242T\016>p\377j=t@@=\224;\360\275\263t\021\276\210\007\302<Xw\200\274\010A\261\275\034\364 =@\245\010<\304\220\252=\275]\340\275f\342\016>\270\312\314\274\360tN=H\\\335\274\200\207\337\275>%\007>T\276\t>\310\025\322=0\t\357<8g\030>\305\315\004\276\244\303\226\275\352\334\022>r\027\236\275\344\372\344=8\374\372<\004aZ=\214q\021>\354\305\037\276gr\311\275T\215\031=\230W\002\276X\235\364=\274\320\305\275r\366\025>`\252b=\204\366\001>(.\n>@.\371=t\313\022=@\230\331\274\370\016\034>DL\332=\377|\263\275.:\210\275x\026\356=o\272\342\275\340\352\351=\205\341\345\275\214\022\304=<\342\355\275\220HJ\274\376J\212=(\312\010\275\220_\341=t\324\301=\320P\035\274 b\317\273:;\340\275h1\262<\024\325\213=zU\240=\326\365s\275l.\003=\232t+\2754$\001>\004\351\370=\220\n\002\276\274\017\004>\376\036\346\275\2727\016\276K\267\027\276J\247\207=\262\334^\275\334\206S=\030\320\005\276\330\016:=\224B\001>&\232\222\275<\005\222\275\200\031\r=\254i\364=d .=\220\341\374=\200\273z\274\236dr\275T\240\031\276\310\310\321=0\004A=\20052\274\321N%\276E\320\t\276(A\330=6I\002>\260\250\331=\000\275\305<\3300\305<+V\027\276\200\r\220\275bt{\275\234\035\223=\230h\363\275\206\365\r>\024\243+=\243N\330\275\020`n<\316\222\034>\014MK=(\222\302<\311\270\227\275\270(\270\274\030\261\021=\024l\273=\300Cb=0_\373\275t\307\370=\310\216\343<\240\235w=2M|\275\252d!\276\370y\321\274\362c\341\275\000l6:\"\321\233=P7\262=0\250\356=\3005#= }\312\274G\364\025\276:\343\037>P\336\004>$n\">\331\313\256\275~c\244\275\3108|=\014}\343=\002\223\371\275\210\376\302=\363>\034\276\222\020\030\276PHc\275\370\022B=\324\333\027\275bS\006>\340G\352=\354a\312=@\007[\274\220\217.\275 9\261<\316I\351\275m\217\013\276\244, \276\371\264\305\275\363\310\302\275#_\221\275\3661f\275\304\202\014>p\031\342<d3?=\210\341\037\276\334!\007\275\300\3318;H\304\347=\211\005 \276\354i\300\275\330I%>\366{\007>j\311\n>\300\231]\273a\263\362\275\300j\004=@g\006\275\231\204\025\276\320\224\n<\356\262%>6\237\004\276;\361\037\276\376\350\014>8o\227=HF\327=\340\275\351\274\202\303\024> \257\231\274|.\003>\270&\367\274<[\377=B\364\014>\020\212\357\274\271)\221\275\034\361N\275\000\206\332\275\276\357!>\370S\001=\010\211\212\274\260\222\234=\014d\325\275(\267\016\2760~\347\274H\026\321<j\312\007>5\177\032\276E\345\271\275\240\026\322=\000\212\321=\036\364\241\275\300|\021\276j\034\007>\326\t\320\275@\267\341=\224\340\241=\300_2<XK\351=\020\0229\275\212n\005>\020\260\311=\330\034C\275\261*\263\275\020\271$>\327\305\304\275U\020\215\275\320\353s\274\246\272\335\275x\363\336\275`\205\241= {k\274DHL=\2260\340\275\030e\031>\014\372\335\275\262{\002\276\230\246\352\275\377\264\364\275\024\255\"\276L\203R=\330\205v=\206d\357\2750\':<\2369\013\276\034h\006=\\\3629=\300lX;\001\364\"\276\022\247\000>Sk \276\370\350\006\276\310Y\355=\232v&\275\024\023\372=\022\3130\275H\357G=\240\r\017<\000\344\263=\223p\202\275\3604\031\276h\240w\275\224u\032\275\210\203\221\275\330\025\361=\341s\203\275\300\237\277<\000\340\3729@\3158;\261:\263\275\374\\\327=\230Gm\275\014\227\032\2757\333\223\275\000\347\n>\214\350M\275N/\244=\306@\000>P\037\032\2742\353\300\275lx\254=\274F\030>l\354G=\300\226F\274\304\241\t>p\337A\274,>\031\276\314\241\247=|\202\r=\232\317\010>\017\251\316\275\360\263\215=\350.\263=\326\265\317\275<\360\310=\2449\347=\270g\235\274\216\r\235=\000D\264:\343B\337\275\034\025\034=\244{\273=\330\251\023>\300]\020;\213\317\007\276\000\250j\2740\010\002>\"V\017>\322\231\363\275\246\301 \276\230\'N=h\355\367=0\255L\274\200q\366=t\241b=P\302v\275\030\353\026\2760\332\"=\200\257\253\273\024\210\237=\324\302\302=\314\323\204\275\034\177\317\275[z\261\275\274\021{=,\251\273=\260\253x\274\n\220\004\276\024\000\305=\300F\025<v\341X\275<-\320=\270R\032=\3545\301=\340\237`=\002\230%\276 \\7<\200\263\020\273\310=i=\262\265B\275\340D\263\273\000\326Z;\300)9=\032d\246=\326\234\r>\240\022~<x\201[=%)\002\2764\355X=\3130\033\276\030\037\301=TR\025\275 Ul=2G\242=\334\255c\275\320\027\013>\244\242#>8\245\232\275.l\375\275\354\200\003\2766f\032>\024\261b=H\364\251=\274\250\013>\320j\354=co\361\275L \006=[i\021\276\3169&>Vn\013>\341\316\274\275\210\265\314\274\001\014\001\276w\202\205\275\000\240\264\274MC%\276\020t\324\274B\031\025>LR\177=T9\325=+\316\202\275\322\260\246\275\212\243y\275\030|\266<\374R\013\276G\314\256\275*\206\240=\346\010\206=Dk\370\275\371\303\n\276,\240>\275\232)#\275\244V\027\276\262\261\024\276\254\361\033\276 \210?\275\350@==H\324\333=0\rz<\300O\363<\000u5\273H\261\325=\234Z\365=\300\273\005\273z^f\275\220/\321=z\364\232=\"\253\036\276.\026\004\276N\322q\275f$\250=jc\027>\310\306\362\274\340\352\357<L:\372=\374\217\030=\"\310\025>\2443\217= _\365=\3520\022\276M\033\020\276p\243\010>2\301\016>\312\352 \276\336S\030\276\000`\3568\000\350\r\275\350\230\t\275%\246\010\276\306\250\220=\014|\262=\234gg\275>o\036\276\260\223\315\274\273\316%\276\212\372\245=\340\306\337<\260\003C\275\000\336\016>\260\\\314=\000<\264;\300\335\001>0\256K=\350v\005\2754]\371=@t\376=\370\276\350=|$\262\275\250\355\365\275jq\322\275\260\377$=\302\237\307\275\236C\013>\230\2458=\224fv=\021\334\275\275k\354\256\2750T\322<\274=\251=\336\215\351\275J\317\341\2750\246\037\274\210\r\227\275\014n\352=\227\031\r\276\270\324\010>\217\023\226\275\007\031\017\276\370\276\374=\016~\316\275\314\n\301=0)\177\274\304\376\370=\325\336\240\275\000\241\333<p\344\372=h\032\017>b\357\362\275\377\364\036\276N&\223=\244b\276=w< \276\347u\000\276\220\2141\275\350^]=\036\010o\275X\324\302<\300\004\025\273\260\254\274< \352\364;\322\360\017\276\312u\227=\024\377c\275\350d\333\275\\\313\016>\340\272\303; \314\333<\010\317\257\274t\232\037=\240\232%\276N\276\r>\000\350\3459\312L\233\2750(\016<4\247\025>\341_\302\275\254\223\372=\233\265\026\276>\220\013>A\266\320\275_f\030\276\300\210!>\026)\366\275@g]<`\223\332\275\254\275\343= \312\021\274R#\225\275p\310(\274\226\230\225\275(\253\017>\3702\342<,\324\303\275o\234 \276K)\276\2754\223m=\360\367\341\275~<\253=\244\343x\275L\227\311=&%\'>\253\007\007\276H\235N=\356F%>x\377#=2\247\025>2\363\233=\254\327\327=x\010\353\274hst=\274\267Q\275\344\274\017\275Jg\340\275|g@\275\330\275\324=\010?h=\302\t!>B\tD\275\331\272\315\275\266O\014\276Z\356\334\275\224:.=\320\226\210\275L\313Y=dg\006>\344\2753=\3040\031>r\004\213=l%`=\010\376\253\274\210\220\354<\254\371\211=(F\333=\236h\216=H\302\276=\300\033\264=\376\304\350\275h\313\323\274@#^;\232\335\350\275\274\255\021>@~\261;21\'\276\\r\t\275\314{\205\275\216\227G\275\216\237\036\275\210\304\353=\244J%=\214s\242=\346\362\002>XW\326<\374p\373=.DD\275L\205\316\275@\246\331\275h%\271\274\254\240\371=T\315\322=\234\3072=h\343\214<\360)\r\276\270\255\352<y\350\217\275\264mz=r\364\000>\0105\005\275\202\rr\2755}\203\275^\217\230=\360\275\016\274\326\327\325\275`}\257<\324\351a=\264[1=\300\326\357<8\376\242\274\212h\013>\330\347\210=T\036\276=\n\305\233=P\323\264\274\356\005\t\2768T\'\276\220\241\315=E\034\007\276Hz{=\236&\245=Nw\013>\020f_<!\022\201\275JU\020\276\230\023\300=\340\020\021<h\307\032>o\270\n\276\010\256\277=\200\024\320<\034\376\232=\350\207\214<\0246a=\\\006\010\276\240t\014>\030\200\347</E\206\275 \235x<05+=\370\371==\274\323\n\276\214\365\361=\331\305\022\276\013V\220\275\371k\214\275\016N\'>\265G\036\2764?2=\016\"\237=\200A\314\273Q\000\033\276$\325O=\274^\320=\300*\000< \273\261\275\340~\032\274:\257\321\275\334\356\037\276\314\377q=\277\201%\276\354\352\036\275\270\325\306=\022\360\251=C\370\t\276\226\335 >\020\313^=\357\374\033\276\330\371\264=\200m\005>Ex\224\275\010\340\210\275\030B\202\275:\025\001>\340s\330;\262\017$\276@_\220=X\265\342=\200\350\036<\306\025\362\2750l\254=X\232\266\275\314X\037>wL\302\275\224J\317=\2420\007\276 \037\306<\230\306\245<\020\364\036>\200\243q;`\327\361=\340\261\352;0\233\220<\211G\'\276\320\351\241\274\230\267\202<\224w\226\275\323o\303\275\0304\373\274\020b{<\240#\036=\330;h=\254\217\017>\277a\267\275Bx\213=#K\212\275LF\035>\'/\214\275\014\2260=<U~=X\306\365\274Z\352\001>\222?\020>Z(\333\275\301,\233\275\310\034\253=l\231U=\232{\006\276\000%:;Gd\233\275\342\n3\275@(N; |\254\273\367\021\232\275\200\312<\275\000\231><\264\014\023> 0\242\273\004N\021\276\340\365/<\2207\253=\250\254\037>\340(\342\273=P\356\275\3368\037>T\'\355=0\237\374\274c\202\021\276\344\233v=\202a\006\276(\353D=W\030\212\275\244\t\311=\254\334$>@\352\366=Z\272\222=\2314\031\276\320Mz<\214\331f=\034\354\027=0\033V\274(&\354<\302\023\255=({\365\274\260mi\275\002\350\206\275\350\226\317=\324\032\335=\335\034\216\275\210\"\227<tR\014\2762\367\033>\200U\332<`\205\220\273\210\275\270=\370\245\037\276\214\330\021\276\316\305\r\276\0045:\275\204\200\350=\374\370\025=\204\245\227=T\277\364\275 {K\274t\264\367=\376\207\376\275e\273\226\275\232\231\305\275\220\342\361=s\215\002\276\242&\211=\312\325\002>\220\337e=3w\274\275\026u#\276T} >\274\032\304=\024|\036=@am\2750?\226\274\244t\027\275\214\327\307\275\242b\370\275\277\034\000\276|7\271=k\263\031\276\202\251\361\275\340\2373\274\256\345\016>^S\236=\340T\337;\002\374\t>\244\302\007\276}D\251\275\373\203\r\276N\250\007>\3545\245=\313\031\007\276\274\237Z\275H\324\025\275\020\204]\275x\252-\275\037\215\"\276`\021\013\275\300\252\370=n<\001>P\263\241\274\354x-=\307\"\222\275tJ\221\275 \313\003\275\274\334\027>\300.\003\274\000Tq<\241\372\030\276t8\030>\024\212\030>\202\210$>\331\304\"\276\212E\003\276\210\206\005=\350\203\370<\250u\350<\342F\r>\260{\026\276t\023\n\275\222V\'\276\260-\000<\026\025$\276\000\220z8\260]\031\274\200\353A=\2279\024\276\010\023[\275\000NH=\030\303$>$\271\020\276\371X\026\276\234\216T=\204\257\357=pf\032\275\253\236\r\276\200f\014\273p\025\315=\016v\253=\004=\370=r\210#>\274t\350\275%\034\"\276`\rt<\226\341\014\276\301\243\023\276\3441\025=\352c\214=4h\036>8\230\257\274 S\305<\300\322\301\274r\260\251=\250\316\253\274\200\312\014>P\034\370\274\003\311\031\276\242\201\243=\255\233\241\275\200\n\263=\330\006%\275\"\002\006\276t\226\036>kO\230\275\326\234 \275\270\351\314\274fZ\002>$\226s=<\2753=\333\246\277\275O\277\262\275\356N$\275\020\340=<\200\377\214=\316\"\317\275P\237\315\274h\030\032\275\030\247 \276H\313\351\275 +\001\275p\023\007\274\000\035\200\274 S\262<TP\376=\220\202\226\275\020~\370=\232\037\247=\347\353\277\275\305\201\205\275\2737\240\275\310\376\354=\350j\367\275\020\255\307\274\224\036\335=dV\354=\030i\265=$\356\302\275 \325\337;\020\034\016\274\014\020r\275\230,\204=\310.\341=\000\370\354=C\250\247\275\226!\237=\360\354q=\334\2103\275e\354\242\275\260\t\366\274X\312\267=\326\010\257\275\203\354\t\276\361+\263\275Z\361\021\276\200\305\307\272 \\\350<\216\207\216= \340\312\274\025\244\217\275>\224,\275\304\321\331=la\346=4\315\211=\224\251&\275[9#\276\342\250\315\275T\020\267=0\345\030>8\201\024\275<\300\267=\260\342g=\320\325\004\274\250f\236=6v\013\276\000\222\006\275|\016\312=\200xT\273\362q\037>\360y\224<\314\036\256\275\300P|\273H\2620=}\200\353\275\352Q\271\275\240\037\267=Pp\222=\264\004}\275\310\316\274=xh\275\274\310\t\371=\210\204\034\275\223r\031\276JG<\275\334\007\005>Q\336\036\276\035\035\036\276\377\270\007\276\260|\373\274\020Y\025>\036[\255\275\2544\275=~j\331\275\002l6\275x\360z\275tD\001>\317Y\222\275l\343\006\275(\342\252\274\006\316)\275\370\371\343=\2041\001\275\274a\207\275v\215\017>\020[!>\364\340\024>\320\215\016\276Z/\032\276\354\022\030\276`\370&><\310\024\275\200\345K=\320\221\021\274\264-\001=:M`\275\200\220\263;\342\374\035>X\366\021>\372\255\311\275P\\\372\275sT\230\275@\310\276=d\321\023=\260g\332\274\340\251\365<\367\251\275\275V\354\n\276T\035\005>\350\314\211\274\000\372\025:\200\252\217:.\366\327\275\3315\240\275\262\244\327\275\300\361\r;@Nr<8\220\331<\340\232\350=\230Xk\275 \222\306;\010N\232=\314\341\344=\247O\022\276|\201\271=\354\240;=UH \276\006z\026>\244V\320=,m\335\275\026\351\032>\354eZ\275\200\236\252\274\364(\342=\204\024\261\275\264\t\274=\033+\036\276v\\ >\350\016\374<\312\340\003>&\227\252\275\301\037%\276`\317\317\274t\372z\275X\351\323\274\\\362\006\276\240r\032<\252\005-\275\340\331\351<D\332\331=v\0208\2754\251\343=\\z\037>\374\354!>\240^&=0{D<\276[\031>\233\302\264\275\226\024%\276\314\t\257=\014\253A\275\354p >\334\225\221=\321\211#\276\000\'f\272\375y\013\276\262\000\030\276\321\"\222\275\032\301\024>p\205\317=\370\255#>\300\332\310;\034;\370\275\316\263\013>\300<\007=\372\241\034\276\200\001\367<\335\334\023\276\202-\t>`\300\352\274\254\222\221=\321\237\021\276\377A\222\275\362:#>\206VY\275(\326\240\275\240o,=\223\273\255\275\364x\003>\177\343\244\275\257\315\022\276\317\335\002\276N\341A\275,G\305=\272s\204\275\320\314\233=(_\323\275\232\276\010>\2745\247=\324,\215=\264\354\221=\322\027\024>\030\023\017\275\374E*=tMq=\235\337\017\276@\204\272=n-\023>0\347w\275t\211\345=\r\263\203\2757\001\014\276\260\201\366\275~\r\022\276\010\317\363\275\370\337\033\275Fd\037>\250\025\222<\305\212\035\276\206\n\227=\304.\310=\000Y\363=\322\006x\275\203H\022\276\220\230\273\274Dl\332=\234\'b=`7\342;\320\253\335=\210\310\205\274\330w^\275D5\237=x#/\275\374\302t=lix\275\344\232\230=\214\036\037\276\365v$\276\036\026\340\275\342\371\266\2758Q\333=(\203\016\275\220\007q\274\000>\222\274l\250\000>\252\263\234=\214\'!\276\230\022-\275\360s\235<\216\010\032>\000\225#; \375\334<X6\247\274@\003\330\274`(&>\000\224j\271\356\335\311\275\360\023h<\234Y\315\275\274\371\364=V\355\350\275{>\034\276\324NI=\334PH\275\003K\351\275\240~\276<>\010\001>\030r\025>\244\327\341=\360~{\275\\\001\312=\324\304\244=\226\2269\275\036\276\311\275 x\355=hF\235\275:\024\206=\344\245\220=8@s=\224\207&>\264\237_\275\366n\005\276\204\327k=\224\200\236=~\200\253=U\027\341\275x!\211\274\325\263\254\275\000\3426\272\310\\\227\274\000e\351\274@K\276<.)\\\275$\336\t\276\246\330\027>X\017(=\301r\211\275\0266/\275:+d\275X&\256=\270\210\300=\2563%\276\200e\352;{\367\032\276\302\010\">\230\243\214\274\232\361 \276z6P\275\3320\002>\000\022b:fx\003\276\216\310\260\275~\021\232=\376)o\275:\005\374\275Z*\037>\224\203i\275L\366\006>\220\304\034\274\270\365\230=@\216Q\274\340\247\276=\250\001\311\2746\212$>H\0313=0\303T=T\177\034>U\350\031\276\036j\"\275\204\030\005\276(\222\344=I\315\345\275\326\230$>\310Hu\275\031\213\'\276\200\344\352\273bo\347\275\264\227m=\370:W=\206l\">R\332\032>\362\241\026\276p\"\224\274\242\037\006\276PY\376<|\337\273=\000\2546=\370=\342=jV\332\275p\022\346=\224\357T\2750vA\274\330d.\275\276:\201=X\347\213=\020 \320\274d\262\355=\320\303\004=P\017\010\274\260!\233=\274z\315=J\022Z\275\346(\034\276^\007\246\275\234\021\202=\216\270A\275\375\331\223\275V\271\260= \026\244;\010\330f=N@\004\276\266\235\">\320~H\275L\214\026>\260<%=h\370k=\020\013!>\200\336\342\272\250y\033\276\356\332\031\276\362,E\275\202\315\005> \013\257\274\320\256\311=\255\261\263\275\370t\030\276\236l >\326k\205=\266#\'>\237\241\356\275x\265\363\274\252\214/\275p\251\021=\00051\273\364j\226\275\314 \036\275tr\035\276\320h\255<\341\006\250\275\216\244\022>H\0270=i)\307\275\202K\265\275S\351\232\275wC&\276\334\027r=\212=\001>\006\311\037\276\257\323\000\276\300/\242=X\327z=\224}\266=\004\036p=\264\376\031>H\274\020\276\302l\246\275\010\344\320<P\251T\274H\336\250\275\250n\341<\340\255\315=\360\035\005>Z\305\243=\234S\032\275\030\374\262=\200\'}\2738\256\031\276H\004\252=\204\206x=\026K\260=t\023\210\275,o\311=\\\246\037>\254k\252=4\247\362=\310\337-\275\255\262\005\276\000-\336=\000: >\254\212\343=\316\257\027>E7\310\275\266\302\037\276\374\366\347=x\n\247\274\343\236\345\275\354g\034=\370E\362\275\0319\030\276\242\353\267\275\224\342q=\375\332\376\275\240\274\346=|\362\322=P\304\234<\264\243\332\275\350\005\272= \240\226;\304\303\260=2S\241=\014\200\261=\240\213v<X\272\006=\267\366\033\276|\010~=~\344`\275\330$\312=\001^\025\276D\t\271=v\274\006>\036\211\225=\314R\366\275f\000\026>:\333\025>x>\256<J\201\210=\021\273\271\275\274&Q=\360\205K<\330\026\372\274\224m\272=~\274 \276$\276\262=P\347{<\324\226\243=(\032&>\3444\364\275\nj\213\275\344\330\373\275\2261\247=\006\376\224\275\003t\210\275J\t\031>2$\370\275\365\256\240\275\022\371\251\275\000\177\004=Y\256\006\276\324\243\030\275d\226\234=\356\373\351\275\240\211\345=\340\017\330=\326\327\246\275\236\226\217=|\347\007\275bi \276\314\206\271=\350\023\307=T\275\017> \275D<4\226\320=\204\'\333=\270\374\356\275d\031\n=\000s\367\272@\345\371=\231\n\346\275\000c\016=\200\377\256\274`\205\246\273\226\223\000\276\010\022\307= \024\324\273@B\202\274`\030(\274\210\204~\275\3741\274=\310^T= \033\003<D\000\373=X\036\315<IN\037\276\300q`\273\262\241\022>\023\026\236\275\020F\337=\320Q\036\276\250\334\236\274\224\203\331=sZ\'\276\302}U\275\002\002,\275\"\245\251\275 6i\275J\235\327\275\364\273\021>\360\270\372<(T\316<\340\233\262\274(\211\001\275_9\217\275b\013v\275()\020\275\027\r\206\275\300BH\275\270X\355=t\250\033>`\370\373\273\330|\305<\301\255\"\276L\023E=\240\007\322\275\034b\237=\250\254\330=\260S\005\276\361m\222\275\364\037j=\027\315\026\2764H\364=\244\372F\275\256\360\243=\212\237\254=\034]\016>0\256\014>\324\323\017\276\0146\377=\271%\024\276\370\247\202\274|8\277\275\362\261\033\276\204\342\020>\336\310 >0\325*<\320\362\206= \001\240=b\347\211=B\306\036\275\202 \000>\004,\237\275%\333\267\275~>P\275Kw!\276\273\201\264\275\232<\n>\214%\354=\320;\375<\350\214\231\275\274\277b\2751!\264\275f\371\237=\004\'\\=h\241\241\275~\215\n\276\244du=k\240\t\276\260\024\242\275\240\263j<(1\273=6\374\r\276\322\215\256\275\3249\n=\000\354\006\272\035\353\225\275\267\241\251\275\310t\277=u\340\300\275\320Ul<O\003\003\276\022\345\315\2750\032\264\274(\034_\275\200\006\341<\0177\254\275 ;\323<:\340\024\276X\332\016\276<\014^=DW\367=\024\031\352=\230\334L\275hW\310=\254\262\300=\352\203\"\276sr\374\275D\265\225=\303\301\321\275tBS=\224aJ\275\224\202\371\275\300\215\372\274^E\322\275\300\240\315\273\224\335\304=\240\244><&\341\333\275\342\221\007\276Y9\364\275\276\030\254=0\331-<\234{\277\275\217I\032\276\274\272\001>2\"\347\275\364=$\275*\340\217=\256\347s\275\272M\002\276\000\325\003:\000U\272;\000\226\261\274Z\354l\275\324\212\350=\200\266\277<0\276\330=\270\355\214<\335\274\255\275\000n\017:Xp\322=\262\'\225=P$\232=\324-\360=0}W<\200\265\026<\354\341\007=C\212\017\276\262p\343\275\360\010=\275\312]\034>6\215\034>P\242b\275\360\263\345<Z\305\312\275\304\240\021\275\000[Y\273\375\210%\276\320TJ\2756@\036>\032\260\026\276\332\215\023>\344\375\223=\232VI\275\023\334\024\276\320#\003<\010\2330=\317\377%\276\032\254\035>pL\034<\307m\032\2764\227\367=\374`\363\275\362\274\204\2754g\341=\250\357o=\000\314\317\274\210\000\375\275\274\252\325=\254x\263=\n\371\232=\267\276\215\275\304\227\266\275\217\354\205\275\374{\324=X[\321<,7\\=\004l\216\275\214h\024>\\\n\n\276\370@\"\276\214g>\27506\312\275\232\350\361\275\224\240\"\275\240;&<\210\302\271\274\000t\000>\370(\325\274\010\360\266\274\371\256\322\275|r \275\354Y\303=nt&\275P\371\300\275$P#>T\366\204\275\246\263\213=6\361\000>\230\221\333=\240,C\274`\205\022<\2044H=\274\352\222=t\233\005\276d\326\223=B\023\372\275\014J\262=\320\241B=\360+J\274\317\360\r\276\300<\013>\0000O\270\374U\306=\301\360\003\276&\004\224=\340\214\324\273\000?M\274L\211\364\275zx\n>`K\250\273\014f\313=\326.\016>\034\257\272=\0106\264=\314\274\"> \245\217\275\346\263\276\275\330\315\004=\244\207b=\264\"\327=\017N\033\276\200\335\344\275p\315\343<\030\365\322\274\010g\364=\262ou\275\210T\327\274\370\235\001\276l\n\n\276\034\265\010>\234\220\022=\270\242\014\276\017\'\201\275\207\n \276(\236\000\276[\020\337\275@\0238;\204\3569=0\344\263<\360\300\r\276\234Y\356=\006\215\205\275\3224\330\275\344~\223\275\242d\023>\276y\340\275\014\340\017\275c\205\224\275\024\225P=\000\200\3028\000\321\304\272\010\264\033>\326/\366\275\301V\037\276$\320\031\276$\332\034>\334\311\275\275\024\005\333=~\345$>\260g\337\275\220B\263\2740\370\227<\032p\304\275\300\210\344\274\2427]\275\000\204M90\3010<\267A\"\276\270\365\036\275\220\237\225\275(\251\271<\317\026\334\275\240+\341;H\024*\275\001\222\210\275,\314\305\275\274\312a=\236\236\215=$S\t\275\020`y\275\334\365\271=\231\207\032\276\026\223}\275\006\273\247=\224\027\317=\360\271\034<K\226\225\275\014\332\215\275\020m\232<\326\230\365\275\360\327\345<\361 \001\276X\301\345=\340n\005\276\312\030>\275\300\262\356\274Z\201\373\275\340\332\316;\\F\374\275B=r\275\254\307r=x\034\031\276\365\001\035\276\334\327\014\276\325\271\353\275\364\206_\275\010.\301\275\245\010\233\275<z\317=8l\322\275\250\204\335\275\372F:\275\250p\320=\330\267\255<\277\345$\276\r\272\217\275\230\241)\275\370{R\275\207\365\035\276P\0212\274@\3118<\267\305\225\275\216=\007\276\004H%>J\233\t>\360i\374=O\261\275\275{\300\310\275\004\334\217=\337\333\025\276\252\213\007\276L^a=\224\316R\275\034\231\311\275\334\245\356=\234\010E=X\276\214\274X\253\306=^B&>n\307G\2750b\235=\350\375\374=\314\r\023>\034\247\341\275P\307X\274\367\241\023\276*\330\317\275&\222R\275\214\261\367=`yt\2748h@=\030\313\305=P\225\266=H\234t\275\353.\020\276lS\204\275\314\256\005\275\340\0029<O\203\266\275X\352\375\275\0003\236=fx\234=\025\237\035\276 \2534=\310\035\340<\264\262\254=` \005=\004\346N=\247\r\013\276\337\242\005\276\220n\223\275\006n\242=@d\325\273\303\337\002\276\200j\200\274\024\343\314=\276\356\023>H\235\004\275\200m\342<\356\226 \276\000&d:X\375\276=`\265\010\276\010\273!>$\327S\275\300\301[=\370\017\332\274\030\t\333=\262\252#>pM,\274n6P\275$\342\357=\354W\200\275\010\356p=\364\004\240=\000}h<I\031\025\276nR\242\275\214\032\253=\322\233&\276ZNf\275x\370\376\275\256 Y\275Z3\027\276Ho\322=44]=\264\336\034=\r%\032\276\200M\343;\320\311]<\362\237\007\276\330\n\331=T\335\347\275\202\247\257=\246#%\275\320z\006\276\314\2701=\355_\332\275\264|m\275\201\267\375\275\364__=n\321\034>\2540&\275\200~\002\274\274i\203=\000\357K=\0006\324=\300Z\005\275r\221\256=\312\t\223=\360b\014\275\377\250\251\275<\005\020\276\207n\312\275\340$\376=\224\323n=\340\342\t>\362\351Q\2752[\237\275R\216D\275!\343\362\275,\001&>\200\232\226;?\002\006\276`i\357;J\211\001>\270\331\300<\004\345\356=\270q-\275\252\237\341\275\264\333\005\276X\350\250=\276\330\235\275\2409\221<Ol\311\275\206\216\347\275HfM=X\241<=\034\334\023=T/\036\275\266z\232=E\332\362\275\224\214\020\275\\:\365=x\376\265\274\204\271$>\244\006\276=\256\362z\275\214v0=\354r\316=`\222\351\273\240\005\344=\275\241\273\275\270\205\307=pi\377\275p\352\360=\250\233\362\274\360\r\304\274\300\020 \273(%\274\2740\023\314=\300\372r\274\244\260\213= 8\001\274\350\234\364\274\264\014\277\275\260\305\364\275\230\256n=2\216\200=h\033B\275\024\346(\275\232X1\275\254\246\025>\004T\020>\266&j\275.\361\024\276\356HT\275\350\252\225\274\246\211\010\276\000\203\335\275\354\233\367=0@6\274\346\237\023>\336\006\">\370\230h\275\000b\223\273\020\030\347\274t\374G=h\370\200<\r\r\334\275\222\211\000>\240\003\236<\030\342\350\274\025\025\227\2750\313\014>^5\025>\250h#\276\214\333!\276h\257K=!\014\r\276L\026\216\275\250\"\332=\321\253\343\275(\nD\275x\236?\275R\006{\275\373$\243\275\254o_=<\221\330=\347\014\000\276P\315\310=\263?\003\276`!=\274\210@K=\334\216\360=\326\343\001\276\270\016E= O\005\274j^\031>`\244\272<x\000\262<\264\376\301=\004\022c\275\340\017\210\273\350)\343\275E\372\221\275\200`\203\273T4a=\215I\004\276o\353#\276\254;!=]\342\014\276\246\261\245\275y|\217\275\024`\r=\262\275W\275 dS<\024\013\034\276\2306\314< \253\271\274\234u\214=<\204\007\276\332j\236=.\261\200\275*\361_\275\240e\345\275\231[\217\275\237\373\231\275H\021\001\276\246\210\215=D\340\010>\030\236\253\275(9\265\275\337U\225\275hQ\255<\200\330\357\275x\010G=\270>\371=\214\305~=T\020\242\275gy\256\275\374\355\364=\300\275H\273\324\"4=\375\303\275\275\342 \215\275\3402\307;.{\007>`\2550<)\221\233\275(\271!>\212\320 \276(\340\267\275,\310\006\275\242\013$\276\016\222\256\275\020\334Z\274\220\3566=\000r\022>\006R\006>\240\260\373=&\233\t\276\330\316\273\274~`\235=\200\"-\274\"v\276\275}\364\257\275<D>\275DZ,=6\230\250\275\000p\'\273\204\274\310=8L\333=\232\354\372\275(\267\334\274\315m\"\276\000(l=\246>(\275\000\3011;\203T\303\275\n\333\214\275\242~\023\276K2\221\275\000~\032\276Dc\323=\320\310\014\276\212T\335\275.\273\227=\203\177\220\275\324\365v=\033&&\276\250\276\225=\370\211\030\276Z\345\r>\340W\333;\224\210\030>\335J\272\275\240\211\244=\210\225\032=r0\271\275\244\204\027\2752r\226=\233c\212\275X\036\215=\270\005\013\275\311\363\017\276q+\217\275\240\022\213;\240\355\272<\240v\304=\230L\352\275 ;\364=xc\010>tAt\2759\214\002\276\274Qe=\240\373\360\273\010\336d=\360\311^<\000\204\206<P\204\025\276\235\307\364\275\234Y$>\3208\003=x6{=\000\312<<\336Y\007> q\306<y\216#\276\264e\004\276\340\317,<\213i\222\275\212\322\211=\005\236$\276\220\276v\274\200\353(\274\020\271\331<0\251\250\274\356\231v\275HY\322<\364\027\"=t\232\003>\001n\277\275\362@\001>5\362\013\276\207>\225\275\3210\313\275\250D\365<p\016\r>\374\025o\275D-\022>p\177\374<\274\007!\276\250.\251\274V\017\257=\020\307q<\320\320\022>p\365\331=j\024\017>\220*\367<\\\n\020\276p\302\374=\000\225`\274\2108\340=\276\375\234=\247!\224\275\277\263\034\276\340N\326;\343#\205\275\010Qt=\345\235\026\276@E\006\273\230F\257=H3\265=\350o\213\274\342X\200\275x@\312<\\H\307=\300Y\375=D\271\317=\324x\024\275\260\217Z=\374\251l=\310\331\360\275\236X\037\276P\252\314\274\320A==<\tm=\364\321\200==\227\302\275\340\336R\274}\235\242\275\302\256W\275<y\352\275\014n\n= 0\252=\300\204!<0\353\004>l`\372=\010\335\303=\344\210\264\275`\027\235\275\200\023%\276V\314\001>\324\324\032\275j\354\000\2764?\367=\330\307\n\275\224*\267=\200\345\030>\316j\036>@\267Z<\260\255\313<\351^\'\276<e\035>.\347\035>\260\2145\275:~\246=\324-\201=\277\370\021\276\020\374\021\276\314\232\235=\310\003\220\275\266\204h\275\366\314\037\276\310\312\355<\262\244,\275\024\316\213\275\3105A\275 \302\325=~9\007>\362E\232=pK\262\275\304\006{=\372\203\032\276\200\307\245=z\264\017\276\020\257I\274\250Y\317=\"\023\254\275\300\276_\274\000/\221=\017\021\216\275&65\275\340\254\000\274\366\024[\275\210\305\277\274\220\213\353<\224\005\200=\\\r=\275\370\326\234\274\246\215+\275\314C\212=6\332$\275(\302\240\274\270=\245=\020\226!>\236\017\215\275\210\002\003>\023-\252\275\002\224\216=n\357\033>\322\366w\275\030\313\034>\376\233\271\275\002\235\003\276\022\230\003>\0146K=\200\362\024=\206\256{\275|\236\314=(C\313<\254nV\275b\250g\275\304mi\275\000\362\n=\n\274]\275$=)=\023\n\022\276\320\005\356=\320\272\306\275P\204J\275<\202\023\276\355!\266\275H\354\351\274\264\334O=\024\035\023=\234\247\344\275D\267\230=\000t$\276\300\255\016\273\224\253\332\275\214\317\232\275\3124\225=\377\007\020\276\204\240!\276)\307\236\275^\005\205=`\\;\274\240\207\263<h\212\266\275\004\356!=\272T\034\276X\371\204<\214[\367\275\031\257\025\276\220\365\024>\261\207\"\2762-\r>|e\302\275\016c\204=\327\372\252\275\300\244\213\274\364\224\014\276\t\031\257\275t\023\000>\324\316\300=\232\300\022\276\014\245\363=\232\001\002\276d\265\365=\266\336\004\276\340#\206\273\274\315\266\275\202\320G\275\000\027\360\272<\222C\275\370\000\315=\370\212\305=\2406\034=\320\263\371<\030\330\267=\020\307%<j\301\t\276\302\325\247\275\200t\302\275\342\214\010>\\\337\021>\030\261\n\275\000\270\017\274.n+\275\206\274Q\275\244r}\275l\277\330=\213\300\241\275\262\3508\275h\365\031>\340\347\351<\337\203\271\275F\350\253=X\205\t>~Ed\275a\337\334\275\254\\\267=\314\264\013>\371t\202\275Z\035\235=6\245\247\275*\365\017>h\347&=x\271\t\276\010\240\021>\374:\007>\260. >Xf\357\275\200\035C\275n\036\374\275\266\212\211=\350(\242\274\020\014\377<nDT\275e\036\316\275\2708\r><Z\'>\020\202\243\274@\307N=h\314\241\275hm\024>\310\276x=\000\177\022\276\374\273H\275hg\207\274\220\007\341\274\300\324\007\274:\353b\275V\314\254=.M<\275if\375\275\320\304\035\275\3509\360=,\331\016>\240\212\350\273\352\246\222\275l\267\020\276F\323\242=i\031\232\275,\271\276=H\251\274=\216;\"\276u\177\244\275\3747\373=\370\257\243<\336],\2750\352\265=\010\234\366<\237\273\307\275\326\311\375\275\240u9\274\206\321!>\200\020\027\276D\310\236\275\224z\377=\036\320=\275\360l-\275\270\252\203\274\341u\033\276\311\323\313\275\252\236\002\276\214\332\r=\300:>=i\205\242\275\336G\220=\335\004&\276\214]\202\275\330\222$=\230\335\365=\210\200@\275@\037^\273\361&\337\2752\272\021\2760\022o=-v\030\276\300\256\035<@\350\027\274G7\234\275\360S\022\276\2302\360=\005\233\024\276~\237\303\275\030\254Z=49\352=L\267\000\275|[\027=\2300\360<\376\333\025\276Z\221\255=\300\330==\300+\t\275S\315\r\276\204j\223=\032o\243=\016\315%\276\370\030\311=(K\243=\304\233\210=\204_\226=\240\031e\274\320\037&>5\034\t\276\224M4=\320\3417=$\315\205=\301\270\026\2761=\032\2768q\311\275\224\257\002\275\262U\002>\260\000\231=p\223\"<\0208P=\304$\003>\214s\264=\234f\007=~}\006\276\322\006\205=\240\373N=,;\341\275`\031\216<\016\tP\275P\234\004\276\357\214\267\275\340\032\271=\302\377\367\275\350\271\343<(\225\275<|\270\306=R\202\031>\036\330\346\275\2402\340\274\247\031\014\276\326\020\014>6\244\020>,\010\343=\246Ru\275\034V\371=~_V\275\372\366<\275\232\323\217=\0323\021\276\034\002Y=\300\360\004\273@$=\273\200\234\344\272Po\347<\000\254\010;\300x\363\2748_\022>\300:%>\254\374\035=<\363!>\200V\017<\330\352Y=\264\200\317\275F\222\277\275\323\026\241\275\376\234\265\275\320\200G= \352\017<<p\230=\372x\036>\000\210\225:\200b\335=`\246\021\275\\\206\323=\273\320\016\276xQ\031\275\214\227Z\275 \020\252\273\354\017H=H:T=0\016\016>4d\031>\376\341\006\276\230\030\276\274\254\302\342=\200\223\345\273Zc\027>r\352\005\276\004\325\n\276l\326\240=\3544\024>\300\370\305\274p\334\255\274\004\216\373=\274\371\004>`\374\\\274\014&\330\275\317\024\"\276\330\246\t>\020.\212\274\300]~=\304F\032>\260\253\327\275I\257 \276\342\332|\275\224\374\217=\034\036\200=\224p\006> \372\266=J\360\020>\220\001\261<T\257&>\340\360\202\273\210\225\331<(}\204=\350\262\020>X\276\204<\320\006\010\2740\302?=\354\351\354=\240Ve<p\227\341\275\322v\240\2758\265\003\276\016S$>\350\250@=\362\365\244=\316b\'\276\313\313\310\275\300(\360=\014-J=_>#\276@dG=\353\222\335\275\013\023\326\275\246\022\003>0*\223\274\240\323\325=\360P\001>\014\220d\2758.\341=GN\203\275<.\361=\200\031!=p\334\271=\246\"\257=\032\341\370\275\026V\005>d\360\r>\312\032\376\275\262\037\203=V\254\330\275\n\324\033\276\330\333\323=88\204\274L\037\002\276\300\022#<\250E{\275@M|<\020\325\343=\270,\263\274<r\301=\220zy<\254?$\275\341\007!\276\2304H=\2362f\275\201c\010\276Z\246>\275\030j\037>8\325\316<\264#{=&*8\275\350\222{\275N/\262\275l~\327=\334\026\017=\260\326^<\374\027\374=>\227\006\276\340\333\020=\332\326\001>&\304N\275h\007\310\274\370=\271<\024\322T\275\032\272\200=\264\266\022=PfL\2748C\245\275\014\252\273=F\357}\275\244,\301=O\014\355\275\320\221M=\314\221\235\275\254\372\266=p\300\356<\363\'#\276\024\307\017=\202\250\247\275\326\250\210=\004\250\363\275@\330\261\273&^K\275.g\033\276\314\347f=\252F\232=\014j\312\275@\220Q= \026\025>4g\276=\274a\n>5\024\310\275l\031\231= \232\023\275\214%\333\275<\346\242=\364\031%\276\334\256\336=4z\341=\250\027\325=\304W\242=_)#\276\370\017\357\275XU\214<\205\204\357\275\263/\345\2750mV<\340~\240<\010\235y\275\002\361%>\020s\327\274\340k\002=[\265\003\276\232\350\037>p3\025<z\034\024>d\230\013\275\274r%>P\204\025<\240\223r\274\244\221\364=\360\370\356=\200\026\024>b\003\006>\327\253\355\275z\255+\275\302\230\013\276\352\304\002>\\x\013\276*\270\033\276J\215\221=b\244\303\275\232\\\021\276\212E%\276\200#\024\273\367\366\204\275 \000\030\275\224\002\r>\034\304}=DW\033>T\347l=\020&\277<`\306\326\275p\201\035>\240=4<\304\220\304=v\221\211\275\230,\320=\010\227\017>~\274\200\2758\021N=\254\231\327=\203\014 \276\200\003:;\216\240\r>l\261\025=\014O\314=>O\235=.M&\276^\350\252=\000\313\353:\010+\026\276\224\367\004\276\373\327\004\276\340\'\360=NE\036\276\022$$\276x^\271=\240\235R\274\250\354\277<\324\000\005\275\300C\331=$A\360=\310\354\017>\316\327\000\276\354x\031\275\334Z\300=\032D\005>8\237\002\275D\221\310=\265\323\024\276\350\360\234\274Ki\216\275~\n\n>\032\266\016>\250\324\337=\0048\352=\\\203!>j\252/\275\000\223]\273\274\000\204=\3207\203\275\300u\263=\330\200\032> \240\326\273\340\256\334\275\240L\005<|1L=\2349\026\276\342\030\333\275\000\0307\271\340\207\224;\314\312\251=\034\365\033\276 \214\310=Ho\007\275<!\021\276\2246\210=\020\253y=\202\t\020>\324\177C=L<\022\276\273\203\236\275\\t7=H\221\266\274\226\364q\275\314\024\231=\244M\"=B:\006\276\375\037\033\276\377\354\345\275(\220\345=\364\377\036=lx\337\275$3\350=\202\226\031>\260\227\r=J-\014>\220\220\306\274\300\002\377\273\"\223n\275\350\274\r\276\204\252\360=|d\373=\0067\351\275\220\023U\274\014\364\035>\222-\034\276\014%-\275`\235\022>\000\250Z\275\014\214\"\276\340\312\202\273\244\024\"=\330\300\004>\316\020|\275\312\346\244\275 \320t\275\200\302\005>\240\237\217;\220\202i\274$oc\275^\346\">\2325\240==T\351\275xu =Gd \276\270\374\253\274\360\330\344\275\350\227\270=\025Y\260\2750\370d<\214\000k\275`\310W=\240\013j\275\320\360\005<\200>\344=HH\030>$Z\301\275\010?\026=\324H\206=\344G\374=\300Y\305=\230\022\177=C7\211\275\206\323\207=8\325\t\2761\007\341\275\350\024\273\275\0362%\276\020F\261<h\302\202<\354\030\024=P\261\214<t\033\212=\220\277\016<\037\233\016\276\270\364\263<\360\0261=\202\234\035>\020AO\274\304\321Y\275\350\'&\276\334\033\206\275\027g\033\276L\177\303=\252\313\201=\260r=<\030\337\370=6\004J\275\233\351\212\275SG\270\275`\243\347=\230\371\001>\360\352\026>BS\010>\330S\346\274\002\333\002\276,\236\315=\355\300\n\2760\213z\274\220\'\204=`SJ=\200\034\344<\200\031\257;\370zw\275\014\"\030\275`\255\255<,\312H=:\256\t>\306\233,\275R\025v\275\360\261\200<\262\363}\275;\276\237\275\034\300$=\304\274o=~>\034\276xL\263=\003n\264\275@\225\240\273`\332\361\274o\032\307\275\241\363\202\275\007\201\273\275\007\017\030\276\345\301\363\275\020\370\003=`6\225;\334\345]=\311F\301\275\316P\n\276\342\004$\276\224T\350=\263&\302\275\034J[=\224G)\275E\225\227\275\276\255\206=\006\351\n>L\\\227=\300\275 <\372=\006>h\311\366=\000\366\001>X*\343\274L\252#\276\240&]<@E\342=\213:\302\275Pz\273=M\027\340\275\000\210D;\362\317\243=\262\361~\275\322\351*\275pQ\004\274\316\363\223\275\372:%\275\000n\260:dE\336=\241N\020\276\374G<=\220Lg=\260\355%</\253\031\276\370\006\345\275 \313l\2748\301-=h\331\007\275\354[\364=PAx\274\024\200\337\2750\227\001\276\224-\347=\">\032\276\244\330\261=\310lI\275@@\250\273\030B`=b\034\021\276\223m\275\275\374\305\241=\034Y\000\276\024\t\310\275\030)\324<\213\312\276\275\320sZ\274\3262T\275\204L\006>h\366\324=0\036/<\3749c=\000i\267\272\254\261\021>tM^\275S\177\001\276\030\303\257\274\020\362B<\202\312\014>\334\332\010\275\254\005*=\264v\331\275x\212j=D\237\236\275\230\021\347\274\030\267 >x\273\020\275>\021&>HJ\315=\300ou\273\302\252!>@\256f\273~)\027>0\371\035\276\312s^\275\304\232P=\020\263\016>\350F\253\274\262\345\210=3\325\014\276\252\217\225=\304l\021>pS\237=Tv\024>\250\032\314=\354Y\370=\020XF<\t\262\345\275h\331\260=\001\376\263\275\007\305\373\2754\300\372=>\265&\275+\271\002\276\212Q\363\275\356\3071\2755\030&\276\320\327y<\311g\030\276\254\312\216=h\255\365\274\000i\347:\342\355\332\275\022\272\260\275\350;\256\275lJ >\357\277\220\275y\221\255\275\302o >q\211\256\275\276$\332\275\236\032I\275fY\206=N\304\221=P3*\274\300\034\252= \010Y\274\362\375\025\276\330O\017>\370\200\307<\340\322\232<\030\003\347=\344x\352=\354\002\365=\n\320\036\276P\266\010=\212\326\267\2750*S<\360\332y<\216\007\022>\320\236\371\275\016\r^\275\360d\023\274\342)\000\276n\031\036>D\256O\275\210\301\361=\324m\025=\374\274R\275\000\264H\274\020;2=x\344&>,\357\377\275\260\367\027=Zy}\275(\024\260\275\214\013\272=\364\353\035\276\024\313\310=\230\332\344\275bJ\224\275\314&\272\275 *\272;\000\324\363\275\270\317\024\276G\005\226\2752\t\270\275\341$\235\275\220\247\021=j`\'\276\010\200\333\275$\"\270=\250\342\355\274C\203\240\275PO\202=05\257\275\212\177$\275L\306A\275\254O\371=N\227\031>\312\231\205=\230+\316=$b\r>\340)\356\273`\271\017=\370\333\004>\240\351\033\275\211I\276\275\\q\277=p\235i=\024g\306=J}\254=\010\314\341\274\240\272\366<\022o\215=\334\343\240=h\221\300=\000d\213:\364\003!\276\240j\344\273\357n\031\276\3460z\275\310\036H=\273!\367\275\364\\\004>7\255\n\276\216\200\230=0\001\213\274\224\365\226=W7\224\275(.\014\275\214\205\310=\211\242\255\275\276\354\301\275 i\327\273\310\204\264\275"
      }
    }
  }
}
node {
  name: "dense1/bias"
  op: "Const"
  attr {
    key: "dtype"
    value {
      type: DT_FLOAT
    }
  }
  attr {
    key: "value"
    value {
      tensor {
        dtype: DT_FLOAT
        tensor_shape {
          dim {
            size: 16
          }
        }
        tensor_content: "\000\000\000\000\000\000\000\000\000\000\000\000\000\000\000\000\000\000\000\000\000\000\000\000\000\000\000\000\000\000\000\000\000\000\000\000\000\000\000\000\000\000\000\000\000\000\000\000\000\000\000\000\000\000\000\000\000\000\000\000\000\000\000\000"
      }
    }
  }
}
node {
  name: "output/kernel"
  op: "Const"
  attr {
    key: "dtype"
    value {
      type: DT_FLOAT
    }
  }
  attr {
    key: "value"
    value {
      tensor {
        dtype: DT_FLOAT
        tensor_shape {
          dim {
            size: 16
          }
          dim {
            size: 4
          }
        }
        tensor_content: "\305\306\351\276\304WF>\260i\010\275\374\374\004?\206\346\004\277\362\371\213\276hI\201>\210]{\276r\222\273>\346f\333\276z\337w\276\356\203\242>\002\223\250>\000\356\301>\224\306\010?\300\327\300=\207\374\333\276\224P\211\276\004\275)>b0\306\276\350\222\324=\212\300\312\276\370\\\002?\030(\037>\034\220\374\275<B\205>BE\266>@\"j=\000\035U\276\230\016\325\276f]\"\276\345\313\340\276\200\316Z\274V\260I\276\236=\006?LLA>DI\325>\246\345\004?\347\232\227\276@\262-<(p\177\2760:\253\276\262\350\204>\037\235\201\276\260\237\372>xz\343=@\274\362\274X\261\021\276\262\'\003\277`8\272<0W >\210\r\376\275\370\237\304=e\032\256\276\266\246\330>@\224_>\000R\324>\226X\007?\334\005j\276\224\034\224>\332s\001?@\235\375\275T\354\231\276\224<\200\275"
      }
    }
  }
}
node {
  name: "output/bias"
  op: "Const"
  attr {
    key: "dtype"
    value {
      type: DT_FLOAT
    }
  }
  attr {
    key: "value"
    value {
      tensor {
        dtype: DT_FLOAT
        tensor_shape {
          dim {
            size: 4
          }
        }
        tensor_content: "\000\000\000\000\000\000\000\000\000\000\000\000\000\000\000\000"
      }
    }
  }
}
node {
  name: "Adam/iterations"
  op: "Const"
  attr {
    key: "dtype"
    value {
      type: DT_INT64
    }
  }
  attr {
    key: "value"
    value {
      tensor {
        dtype: DT_INT64
        tensor_shape {
        }
        int64_val: 0
      }
    }
  }
}
node {
  name: "Adam/lr"
  op: "Const"
  attr {
    key: "dtype"
    value {
      type: DT_FLOAT
    }
  }
  attr {
    key: "value"
    value {
      tensor {
        dtype: DT_FLOAT
        tensor_shape {
        }
        float_val: 0.0010000000474974513
      }
    }
  }
}
node {
  name: "Adam/beta_1"
  op: "Const"
  attr {
    key: "dtype"
    value {
      type: DT_FLOAT
    }
  }
  attr {
    key: "value"
    value {
      tensor {
        dtype: DT_FLOAT
        tensor_shape {
        }
        float_val: 0.8999999761581421
      }
    }
  }
}
node {
  name: "Adam/beta_2"
  op: "Const"
  attr {
    key: "dtype"
    value {
      type: DT_FLOAT
    }
  }
  attr {
    key: "value"
    value {
      tensor {
        dtype: DT_FLOAT
        tensor_shape {
        }
        float_val: 0.9990000128746033
      }
    }
  }
}
node {
  name: "Adam/decay"
  op: "Const"
  attr {
    key: "dtype"
    value {
      type: DT_FLOAT
    }
  }
  attr {
    key: "value"
    value {
      tensor {
        dtype: DT_FLOAT
        tensor_shape {
        }
        float_val: 0.0
      }
    }
  }
}
node {
  name: "input_1"
  op: "Placeholder"
  attr {
    key: "dtype"
    value {
      type: DT_FLOAT
    }
  }
  attr {
    key: "shape"
    value {
      shape {
        dim {
          size: -1
        }
        dim {
          size: 1
        }
        dim {
          size: 52
        }
      }
    }
  }
}
node {
  name: "conv1_1/kernel"
  op: "Const"
  attr {
    key: "dtype"
    value {
      type: DT_FLOAT
    }
  }
  attr {
    key: "value"
    value {
      tensor {
        dtype: DT_FLOAT
        tensor_shape {
          dim {
            size: 5
          }
          dim {
            size: 1
          }
          dim {
            size: 4
          }
        }
        tensor_content: "\370\274\331>\311[*\277\311n\000>\316\230\334\276v\262\233>\206\225\363\276\234\260\320\276%\341I\277\330X\006>j\036\261\276\030\217\205\276:\032\346\276\364\276)\275\002\377[>G\374\220\275\333\3231\276\226\316\252\2757\363X\276_D\032?S\327\267>"
      }
    }
  }
}
node {
  name: "conv1_1/kernel/read"
  op: "Identity"
  input: "conv1_1/kernel"
  attr {
    key: "T"
    value {
      type: DT_FLOAT
    }
  }
  attr {
    key: "_class"
    value {
      list {
        s: "loc:@conv1_1/kernel"
      }
    }
  }
}
node {
  name: "conv1_1/bias"
  op: "Const"
  attr {
    key: "dtype"
    value {
      type: DT_FLOAT
    }
  }
  attr {
    key: "value"
    value {
      tensor {
        dtype: DT_FLOAT
        tensor_shape {
          dim {
            size: 4
          }
        }
        tensor_content: "\361\230\367=.\202\001>\244\273G\272\261\261\344;"
      }
    }
  }
}
node {
  name: "conv1_1/bias/read"
  op: "Identity"
  input: "conv1_1/bias"
  attr {
    key: "T"
    value {
      type: DT_FLOAT
    }
  }
  attr {
    key: "_class"
    value {
      list {
        s: "loc:@conv1_1/bias"
      }
    }
  }
}
node {
  name: "conv1_1/transpose/perm"
  op: "Const"
  attr {
    key: "dtype"
    value {
      type: DT_INT32
    }
  }
  attr {
    key: "value"
    value {
      tensor {
        dtype: DT_INT32
        tensor_shape {
          dim {
            size: 3
          }
        }
        tensor_content: "\000\000\000\000\002\000\000\000\001\000\000\000"
      }
    }
  }
}
node {
  name: "conv1_1/transpose"
  op: "Transpose"
  input: "input_1"
  input: "conv1_1/transpose/perm"
  attr {
    key: "T"
    value {
      type: DT_FLOAT
    }
  }
  attr {
    key: "Tperm"
    value {
      type: DT_INT32
    }
  }
}
node {
  name: "conv1_1/convolution/ExpandDims/dim"
  op: "Const"
  attr {
    key: "dtype"
    value {
      type: DT_INT32
    }
  }
  attr {
    key: "value"
    value {
      tensor {
        dtype: DT_INT32
        tensor_shape {
        }
        int_val: 1
      }
    }
  }
}
node {
  name: "conv1_1/convolution/ExpandDims"
  op: "ExpandDims"
  input: "conv1_1/transpose"
  input: "conv1_1/convolution/ExpandDims/dim"
  attr {
    key: "T"
    value {
      type: DT_FLOAT
    }
  }
  attr {
    key: "Tdim"
    value {
      type: DT_INT32
    }
  }
}
node {
  name: "conv1_1/convolution/ExpandDims_1/dim"
  op: "Const"
  attr {
    key: "dtype"
    value {
      type: DT_INT32
    }
  }
  attr {
    key: "value"
    value {
      tensor {
        dtype: DT_INT32
        tensor_shape {
        }
        int_val: 0
      }
    }
  }
}
node {
  name: "conv1_1/convolution/ExpandDims_1"
  op: "ExpandDims"
  input: "conv1_1/kernel/read"
  input: "conv1_1/convolution/ExpandDims_1/dim"
  attr {
    key: "T"
    value {
      type: DT_FLOAT
    }
  }
  attr {
    key: "Tdim"
    value {
      type: DT_INT32
    }
  }
}
node {
  name: "conv1_1/convolution/Conv2D"
  op: "Conv2D"
  input: "conv1_1/convolution/ExpandDims"
  input: "conv1_1/convolution/ExpandDims_1"
  attr {
    key: "T"
    value {
      type: DT_FLOAT
    }
  }
  attr {
    key: "data_format"
    value {
      s: "NHWC"
    }
  }
  attr {
    key: "dilations"
    value {
      list {
        i: 1
        i: 1
        i: 1
        i: 1
      }
    }
  }
  attr {
    key: "padding"
    value {
      s: "SAME"
    }
  }
  attr {
    key: "strides"
    value {
      list {
        i: 1
        i: 1
        i: 1
        i: 1
      }
    }
  }
  attr {
    key: "use_cudnn_on_gpu"
    value {
      b: true
    }
  }
}
node {
  name: "conv1_1/convolution/Squeeze"
  op: "Squeeze"
  input: "conv1_1/convolution/Conv2D"
  attr {
    key: "T"
    value {
      type: DT_FLOAT
    }
  }
  attr {
    key: "squeeze_dims"
    value {
      list {
        i: 1
      }
    }
  }
}
node {
  name: "conv1_1/transpose_1/perm"
  op: "Const"
  attr {
    key: "dtype"
    value {
      type: DT_INT32
    }
  }
  attr {
    key: "value"
    value {
      tensor {
        dtype: DT_INT32
        tensor_shape {
          dim {
            size: 3
          }
        }
        tensor_content: "\000\000\000\000\002\000\000\000\001\000\000\000"
      }
    }
  }
}
node {
  name: "conv1_1/transpose_1"
  op: "Transpose"
  input: "conv1_1/convolution/Squeeze"
  input: "conv1_1/transpose_1/perm"
  attr {
    key: "T"
    value {
      type: DT_FLOAT
    }
  }
  attr {
    key: "Tperm"
    value {
      type: DT_INT32
    }
  }
}
node {
  name: "conv1_1/Reshape/shape"
  op: "Const"
  attr {
    key: "dtype"
    value {
      type: DT_INT32
    }
  }
  attr {
    key: "value"
    value {
      tensor {
        dtype: DT_INT32
        tensor_shape {
          dim {
            size: 3
          }
        }
        tensor_content: "\001\000\000\000\004\000\000\000\001\000\000\000"
      }
    }
  }
}
node {
  name: "conv1_1/Reshape"
  op: "Reshape"
  input: "conv1_1/bias/read"
  input: "conv1_1/Reshape/shape"
  attr {
    key: "T"
    value {
      type: DT_FLOAT
    }
  }
  attr {
    key: "Tshape"
    value {
      type: DT_INT32
    }
  }
}
node {
  name: "conv1_1/add"
  op: "Add"
  input: "conv1_1/transpose_1"
  input: "conv1_1/Reshape"
  attr {
    key: "T"
    value {
      type: DT_FLOAT
    }
  }
}
node {
  name: "conv1_1/Relu"
  op: "Relu"
  input: "conv1_1/add"
  attr {
    key: "T"
    value {
      type: DT_FLOAT
    }
  }
}
node {
  name: "conv2_1/kernel"
  op: "Const"
  attr {
    key: "dtype"
    value {
      type: DT_FLOAT
    }
  }
  attr {
    key: "value"
    value {
      tensor {
        dtype: DT_FLOAT
        tensor_shape {
          dim {
            size: 4
          }
          dim {
            size: 4
          }
          dim {
            size: 4
          }
        }
        tensor_content: "WOK\276\252\005\024>\272.\203=](\313>\233\325\006>\034k]\276}^\221\276N\3152\277\266:\037=\325\032\273\276o\240\036>\365:\236>\251z<?\2431\036>S\313\013\277Z5\343>\266\356\245\2764\210u\276\216\002\320\273\236\231\251=\2112\340\275\302\206\334<29\026\276\006\370\354=\273S\271>}WH>|j\210\276\255R\203>\006\266\301;PO\252>b\370\346;L!\020\276Q\013\305\274V\214\314\273\211\331\223=\310`\317>\345_\004\277bH\273>kQy>\023\362\306\272g\274\032>\220\373a\275y\233\317\275\030\"\226>\r\2276=\366Ib>\220[\206>j\327\375>\200\250\207\276\312\261\000>r\031\263>\334\223a=DT\020=\262\340\003>\250\364\215=\230y\300\276R\304\033>\247\0327\276\255^!>\366\344\t?5!\363<\221j\360\276(\305\245\276\305\235\263\276"
      }
    }
  }
}
node {
  name: "conv2_1/kernel/read"
  op: "Identity"
  input: "conv2_1/kernel"
  attr {
    key: "T"
    value {
      type: DT_FLOAT
    }
  }
  attr {
    key: "_class"
    value {
      list {
        s: "loc:@conv2_1/kernel"
      }
    }
  }
}
node {
  name: "conv2_1/bias"
  op: "Const"
  attr {
    key: "dtype"
    value {
      type: DT_FLOAT
    }
  }
  attr {
    key: "value"
    value {
      tensor {
        dtype: DT_FLOAT
        tensor_shape {
          dim {
            size: 4
          }
        }
        tensor_content: "\264\341\022\276I\236v>\245&P>n\013<\273"
      }
    }
  }
}
node {
  name: "conv2_1/bias/read"
  op: "Identity"
  input: "conv2_1/bias"
  attr {
    key: "T"
    value {
      type: DT_FLOAT
    }
  }
  attr {
    key: "_class"
    value {
      list {
        s: "loc:@conv2_1/bias"
      }
    }
  }
}
node {
  name: "conv2_1/transpose/perm"
  op: "Const"
  attr {
    key: "dtype"
    value {
      type: DT_INT32
    }
  }
  attr {
    key: "value"
    value {
      tensor {
        dtype: DT_INT32
        tensor_shape {
          dim {
            size: 3
          }
        }
        tensor_content: "\000\000\000\000\002\000\000\000\001\000\000\000"
      }
    }
  }
}
node {
  name: "conv2_1/transpose"
  op: "Transpose"
  input: "conv1_1/Relu"
  input: "conv2_1/transpose/perm"
  attr {
    key: "T"
    value {
      type: DT_FLOAT
    }
  }
  attr {
    key: "Tperm"
    value {
      type: DT_INT32
    }
  }
}
node {
  name: "conv2_1/convolution/ExpandDims/dim"
  op: "Const"
  attr {
    key: "dtype"
    value {
      type: DT_INT32
    }
  }
  attr {
    key: "value"
    value {
      tensor {
        dtype: DT_INT32
        tensor_shape {
        }
        int_val: 1
      }
    }
  }
}
node {
  name: "conv2_1/convolution/ExpandDims"
  op: "ExpandDims"
  input: "conv2_1/transpose"
  input: "conv2_1/convolution/ExpandDims/dim"
  attr {
    key: "T"
    value {
      type: DT_FLOAT
    }
  }
  attr {
    key: "Tdim"
    value {
      type: DT_INT32
    }
  }
}
node {
  name: "conv2_1/convolution/ExpandDims_1/dim"
  op: "Const"
  attr {
    key: "dtype"
    value {
      type: DT_INT32
    }
  }
  attr {
    key: "value"
    value {
      tensor {
        dtype: DT_INT32
        tensor_shape {
        }
        int_val: 0
      }
    }
  }
}
node {
  name: "conv2_1/convolution/ExpandDims_1"
  op: "ExpandDims"
  input: "conv2_1/kernel/read"
  input: "conv2_1/convolution/ExpandDims_1/dim"
  attr {
    key: "T"
    value {
      type: DT_FLOAT
    }
  }
  attr {
    key: "Tdim"
    value {
      type: DT_INT32
    }
  }
}
node {
  name: "conv2_1/convolution/Conv2D"
  op: "Conv2D"
  input: "conv2_1/convolution/ExpandDims"
  input: "conv2_1/convolution/ExpandDims_1"
  attr {
    key: "T"
    value {
      type: DT_FLOAT
    }
  }
  attr {
    key: "data_format"
    value {
      s: "NHWC"
    }
  }
  attr {
    key: "dilations"
    value {
      list {
        i: 1
        i: 1
        i: 1
        i: 1
      }
    }
  }
  attr {
    key: "padding"
    value {
      s: "SAME"
    }
  }
  attr {
    key: "strides"
    value {
      list {
        i: 1
        i: 1
        i: 1
        i: 1
      }
    }
  }
  attr {
    key: "use_cudnn_on_gpu"
    value {
      b: true
    }
  }
}
node {
  name: "conv2_1/convolution/Squeeze"
  op: "Squeeze"
  input: "conv2_1/convolution/Conv2D"
  attr {
    key: "T"
    value {
      type: DT_FLOAT
    }
  }
  attr {
    key: "squeeze_dims"
    value {
      list {
        i: 1
      }
    }
  }
}
node {
  name: "conv2_1/transpose_1/perm"
  op: "Const"
  attr {
    key: "dtype"
    value {
      type: DT_INT32
    }
  }
  attr {
    key: "value"
    value {
      tensor {
        dtype: DT_INT32
        tensor_shape {
          dim {
            size: 3
          }
        }
        tensor_content: "\000\000\000\000\002\000\000\000\001\000\000\000"
      }
    }
  }
}
node {
  name: "conv2_1/transpose_1"
  op: "Transpose"
  input: "conv2_1/convolution/Squeeze"
  input: "conv2_1/transpose_1/perm"
  attr {
    key: "T"
    value {
      type: DT_FLOAT
    }
  }
  attr {
    key: "Tperm"
    value {
      type: DT_INT32
    }
  }
}
node {
  name: "conv2_1/Reshape/shape"
  op: "Const"
  attr {
    key: "dtype"
    value {
      type: DT_INT32
    }
  }
  attr {
    key: "value"
    value {
      tensor {
        dtype: DT_INT32
        tensor_shape {
          dim {
            size: 3
          }
        }
        tensor_content: "\001\000\000\000\004\000\000\000\001\000\000\000"
      }
    }
  }
}
node {
  name: "conv2_1/Reshape"
  op: "Reshape"
  input: "conv2_1/bias/read"
  input: "conv2_1/Reshape/shape"
  attr {
    key: "T"
    value {
      type: DT_FLOAT
    }
  }
  attr {
    key: "Tshape"
    value {
      type: DT_INT32
    }
  }
}
node {
  name: "conv2_1/add"
  op: "Add"
  input: "conv2_1/transpose_1"
  input: "conv2_1/Reshape"
  attr {
    key: "T"
    value {
      type: DT_FLOAT
    }
  }
}
node {
  name: "conv2_1/Relu"
  op: "Relu"
  input: "conv2_1/add"
  attr {
    key: "T"
    value {
      type: DT_FLOAT
    }
  }
}
node {
  name: "conv3_1/kernel"
  op: "Const"
  attr {
    key: "dtype"
    value {
      type: DT_FLOAT
    }
  }
  attr {
    key: "value"
    value {
      tensor {
        dtype: DT_FLOAT
        tensor_shape {
          dim {
            size: 4
          }
          dim {
            size: 4
          }
          dim {
            size: 4
          }
        }
        tensor_content: "|\341`<Vfb=\026w\236>\246\224!\277\225H\242\276\326\220@=\267D\366>\361\263\030>Z\237\202\275:~\310>\311\324\205=\311\342\304>6}\255>\2128\205\276l+\024\277a<\240\276\031\252\360>\347\313\023\277Z\260\366\276\263v\316\276\254\"\316>\306\"y>\225\236\356\275\263\376\026\275=S\031\276\2030\252>\032\034\350>e}w\276\330\255\214>,w<>\312\266\013\277\236\241N>\2015\237>\302I\007\276\301\377 >q|\006\277D\337\026>Wo\326\275T\373\033?\216\356\234>\343H4>\310\262\217=A\372\030\275\337\rh<T\241\240\276+X\262>\240\365\306\276\312\034\242>\001XK>\225K\200\276\002~\337\275\334\254\034\276\327\246\262\275\005\245\267>u\267y=r9\t>gQ\016>\225\211\323\276\364\026\373\275\\,\301>.\347\214\276\322\3444\276\250}\361>\005\203\265>"
      }
    }
  }
}
node {
  name: "conv3_1/kernel/read"
  op: "Identity"
  input: "conv3_1/kernel"
  attr {
    key: "T"
    value {
      type: DT_FLOAT
    }
  }
  attr {
    key: "_class"
    value {
      list {
        s: "loc:@conv3_1/kernel"
      }
    }
  }
}
node {
  name: "conv3_1/bias"
  op: "Const"
  attr {
    key: "dtype"
    value {
      type: DT_FLOAT
    }
  }
  attr {
    key: "value"
    value {
      tensor {
        dtype: DT_FLOAT
        tensor_shape {
          dim {
            size: 4
          }
        }
        tensor_content: "\017W\215=\217\364\024>\310\312j>\007\214k\274"
      }
    }
  }
}
node {
  name: "conv3_1/bias/read"
  op: "Identity"
  input: "conv3_1/bias"
  attr {
    key: "T"
    value {
      type: DT_FLOAT
    }
  }
  attr {
    key: "_class"
    value {
      list {
        s: "loc:@conv3_1/bias"
      }
    }
  }
}
node {
  name: "conv3_1/transpose/perm"
  op: "Const"
  attr {
    key: "dtype"
    value {
      type: DT_INT32
    }
  }
  attr {
    key: "value"
    value {
      tensor {
        dtype: DT_INT32
        tensor_shape {
          dim {
            size: 3
          }
        }
        tensor_content: "\000\000\000\000\002\000\000\000\001\000\000\000"
      }
    }
  }
}
node {
  name: "conv3_1/transpose"
  op: "Transpose"
  input: "conv2_1/Relu"
  input: "conv3_1/transpose/perm"
  attr {
    key: "T"
    value {
      type: DT_FLOAT
    }
  }
  attr {
    key: "Tperm"
    value {
      type: DT_INT32
    }
  }
}
node {
  name: "conv3_1/convolution/ExpandDims/dim"
  op: "Const"
  attr {
    key: "dtype"
    value {
      type: DT_INT32
    }
  }
  attr {
    key: "value"
    value {
      tensor {
        dtype: DT_INT32
        tensor_shape {
        }
        int_val: 1
      }
    }
  }
}
node {
  name: "conv3_1/convolution/ExpandDims"
  op: "ExpandDims"
  input: "conv3_1/transpose"
  input: "conv3_1/convolution/ExpandDims/dim"
  attr {
    key: "T"
    value {
      type: DT_FLOAT
    }
  }
  attr {
    key: "Tdim"
    value {
      type: DT_INT32
    }
  }
}
node {
  name: "conv3_1/convolution/ExpandDims_1/dim"
  op: "Const"
  attr {
    key: "dtype"
    value {
      type: DT_INT32
    }
  }
  attr {
    key: "value"
    value {
      tensor {
        dtype: DT_INT32
        tensor_shape {
        }
        int_val: 0
      }
    }
  }
}
node {
  name: "conv3_1/convolution/ExpandDims_1"
  op: "ExpandDims"
  input: "conv3_1/kernel/read"
  input: "conv3_1/convolution/ExpandDims_1/dim"
  attr {
    key: "T"
    value {
      type: DT_FLOAT
    }
  }
  attr {
    key: "Tdim"
    value {
      type: DT_INT32
    }
  }
}
node {
  name: "conv3_1/convolution/Conv2D"
  op: "Conv2D"
  input: "conv3_1/convolution/ExpandDims"
  input: "conv3_1/convolution/ExpandDims_1"
  attr {
    key: "T"
    value {
      type: DT_FLOAT
    }
  }
  attr {
    key: "data_format"
    value {
      s: "NHWC"
    }
  }
  attr {
    key: "dilations"
    value {
      list {
        i: 1
        i: 1
        i: 1
        i: 1
      }
    }
  }
  attr {
    key: "padding"
    value {
      s: "SAME"
    }
  }
  attr {
    key: "strides"
    value {
      list {
        i: 1
        i: 1
        i: 1
        i: 1
      }
    }
  }
  attr {
    key: "use_cudnn_on_gpu"
    value {
      b: true
    }
  }
}
node {
  name: "conv3_1/convolution/Squeeze"
  op: "Squeeze"
  input: "conv3_1/convolution/Conv2D"
  attr {
    key: "T"
    value {
      type: DT_FLOAT
    }
  }
  attr {
    key: "squeeze_dims"
    value {
      list {
        i: 1
      }
    }
  }
}
node {
  name: "conv3_1/transpose_1/perm"
  op: "Const"
  attr {
    key: "dtype"
    value {
      type: DT_INT32
    }
  }
  attr {
    key: "value"
    value {
      tensor {
        dtype: DT_INT32
        tensor_shape {
          dim {
            size: 3
          }
        }
        tensor_content: "\000\000\000\000\002\000\000\000\001\000\000\000"
      }
    }
  }
}
node {
  name: "conv3_1/transpose_1"
  op: "Transpose"
  input: "conv3_1/convolution/Squeeze"
  input: "conv3_1/transpose_1/perm"
  attr {
    key: "T"
    value {
      type: DT_FLOAT
    }
  }
  attr {
    key: "Tperm"
    value {
      type: DT_INT32
    }
  }
}
node {
  name: "conv3_1/Reshape/shape"
  op: "Const"
  attr {
    key: "dtype"
    value {
      type: DT_INT32
    }
  }
  attr {
    key: "value"
    value {
      tensor {
        dtype: DT_INT32
        tensor_shape {
          dim {
            size: 3
          }
        }
        tensor_content: "\001\000\000\000\004\000\000\000\001\000\000\000"
      }
    }
  }
}
node {
  name: "conv3_1/Reshape"
  op: "Reshape"
  input: "conv3_1/bias/read"
  input: "conv3_1/Reshape/shape"
  attr {
    key: "T"
    value {
      type: DT_FLOAT
    }
  }
  attr {
    key: "Tshape"
    value {
      type: DT_INT32
    }
  }
}
node {
  name: "conv3_1/add"
  op: "Add"
  input: "conv3_1/transpose_1"
  input: "conv3_1/Reshape"
  attr {
    key: "T"
    value {
      type: DT_FLOAT
    }
  }
}
node {
  name: "conv3_1/Relu"
  op: "Relu"
  input: "conv3_1/add"
  attr {
    key: "T"
    value {
      type: DT_FLOAT
    }
  }
}
node {
  name: "flatten_2/Shape"
  op: "Shape"
  input: "conv3_1/Relu"
  attr {
    key: "T"
    value {
      type: DT_FLOAT
    }
  }
  attr {
    key: "out_type"
    value {
      type: DT_INT32
    }
  }
}
node {
  name: "flatten_2/strided_slice/stack"
  op: "Const"
  attr {
    key: "dtype"
    value {
      type: DT_INT32
    }
  }
  attr {
    key: "value"
    value {
      tensor {
        dtype: DT_INT32
        tensor_shape {
          dim {
            size: 1
          }
        }
        int_val: 1
      }
    }
  }
}
node {
  name: "flatten_2/strided_slice/stack_1"
  op: "Const"
  attr {
    key: "dtype"
    value {
      type: DT_INT32
    }
  }
  attr {
    key: "value"
    value {
      tensor {
        dtype: DT_INT32
        tensor_shape {
          dim {
            size: 1
          }
        }
        int_val: 0
      }
    }
  }
}
node {
  name: "flatten_2/strided_slice/stack_2"
  op: "Const"
  attr {
    key: "dtype"
    value {
      type: DT_INT32
    }
  }
  attr {
    key: "value"
    value {
      tensor {
        dtype: DT_INT32
        tensor_shape {
          dim {
            size: 1
          }
        }
        int_val: 1
      }
    }
  }
}
node {
  name: "flatten_2/strided_slice"
  op: "StridedSlice"
  input: "flatten_2/Shape"
  input: "flatten_2/strided_slice/stack"
  input: "flatten_2/strided_slice/stack_1"
  input: "flatten_2/strided_slice/stack_2"
  attr {
    key: "Index"
    value {
      type: DT_INT32
    }
  }
  attr {
    key: "T"
    value {
      type: DT_INT32
    }
  }
  attr {
    key: "begin_mask"
    value {
      i: 0
    }
  }
  attr {
    key: "ellipsis_mask"
    value {
      i: 0
    }
  }
  attr {
    key: "end_mask"
    value {
      i: 1
    }
  }
  attr {
    key: "new_axis_mask"
    value {
      i: 0
    }
  }
  attr {
    key: "shrink_axis_mask"
    value {
      i: 0
    }
  }
}
node {
  name: "flatten_2/Const"
  op: "Const"
  attr {
    key: "dtype"
    value {
      type: DT_INT32
    }
  }
  attr {
    key: "value"
    value {
      tensor {
        dtype: DT_INT32
        tensor_shape {
          dim {
            size: 1
          }
        }
        int_val: 0
      }
    }
  }
}
node {
  name: "flatten_2/Prod"
  op: "Prod"
  input: "flatten_2/strided_slice"
  input: "flatten_2/Const"
  attr {
    key: "T"
    value {
      type: DT_INT32
    }
  }
  attr {
    key: "Tidx"
    value {
      type: DT_INT32
    }
  }
  attr {
    key: "keep_dims"
    value {
      b: false
    }
  }
}
node {
  name: "flatten_2/stack/0"
  op: "Const"
  attr {
    key: "dtype"
    value {
      type: DT_INT32
    }
  }
  attr {
    key: "value"
    value {
      tensor {
        dtype: DT_INT32
        tensor_shape {
        }
        int_val: -1
      }
    }
  }
}
node {
  name: "flatten_2/stack"
  op: "Pack"
  input: "flatten_2/stack/0"
  input: "flatten_2/Prod"
  attr {
    key: "N"
    value {
      i: 2
    }
  }
  attr {
    key: "T"
    value {
      type: DT_INT32
    }
  }
  attr {
    key: "axis"
    value {
      i: 0
    }
  }
}
node {
  name: "flatten_2/Reshape"
  op: "Reshape"
  input: "conv3_1/Relu"
  input: "flatten_2/stack"
  attr {
    key: "T"
    value {
      type: DT_FLOAT
    }
  }
  attr {
    key: "Tshape"
    value {
      type: DT_INT32
    }
  }
}
node {
  name: "dense1_1/kernel"
  op: "Const"
  attr {
    key: "dtype"
    value {
      type: DT_FLOAT
    }
  }
  attr {
    key: "value"
    value {
      tensor {
        dtype: DT_FLOAT
        tensor_shape {
          dim {
            size: 208
          }
          dim {
            size: 16
          }
        }
        tensor_content: "\201\270b>\305z\037>\264\252?=\336\324\345\274\235k\">I\001&=\206\231A\275\217s\227<\345\307\000> W\207>A\233\315\275\034}#\274\312\320\350=]\n+>\275\274C\276\255\371\234=\002_}\276\251%\233\274\321\311\004\276\274\333\350=\261^\327\275\243\212e=\371\244\332\275/f)>`\310\006>o=Y>\207x2\276\234No\274k\362\242<,\t\337\272\216!\"=k\255\236\276\357\033\324\274\321\273\261=\217f\025\275\322k\006>z\337`\276\265Q\320=\343\204>=\207\336\223>~Gs>\343\214P>\311\\\372\275\367S\317;\270\227]=\272\373\204\276\020\035\346=\311\250\214\276]S\277\275\323\2606=\022\026\005\276/\275\002\2764\352\204\276\366_,=\346\273\026>\252A\334=\rH\030>\270=\271=\370*z<\217|\036\272\317\342\026\276\351\313\305\274\351\007\337\275\200\251P\276\231\315\365<\301\016#\2768\374\356\275\242Y@;_\350\034\275?Y\262\275X\2668<\346\262\344=2\267\014>:}u>\225\245\251\275\354\272\315\275B\004\005>\336 \r=\350\2571\276\317\302\374\275o%\033>\335R\262=\270\020->\036\353O\276\243\321\326\273\342>\223\275\205\203!\276n6\030\275\233\204\346<\307\320\242=\365i\330=;YK\275%e\325\273\305L\342=\2756\005>\006\245\341\2753\325\243=\361\221\002\276\202\347\216=\305_Q\274\246r\016\276\031D\312=\237W\366\275\370\357O\274\344G$>B\206\r>\374\207\304\2754x\331\275\336\352E=h\240\247\274\221\365\265\273\346\367\211\275w\373\036=U\n.\2763;\036>\330)\256\275\365k\230\274\213$3>E\372\016>\252A\340\275y\311\203\275\362\274E\275\372\360k;\354\316\342=\233U\035\276\352\307\313=\007$\027\275:\355%\276\302\216#=:\276\236=F\346\254\275\002\2458=2}[<\251\310z>Vg\n=O\037\245\274Gf\201=\272\262\367=C\377\017>\245\022!=ms\331=:\223\023\276,\224N=\346\262<\275k\253\202= \213\263\275\2361B=\270\353`=\304\302\347\275\007D\004>ni\212\275PO\002>\223\302M>l\341\376\275;\330\237\273\206y\326\275\037\256\302=SV\036\276A\331\323=\204-\010>\276\374\220\276M&5\275\205(\270;$\264\307\275\356\211\026=\207\231\003\276,2U\276\361\324\001>C\036\017=\017\365\221=\2123\230=S\017\341=\000`\247=\330xs=\344\035\201\272\nB@\276\335i\'\276A\210K\276\220\237\303=\320\232\261=*>F\276\216\247\276\275\315\024\224\275q\3002>|\326\177>\206Q\224\2753\025G<\000\275\325=\030\n\267\274\267\232M\276\003\344\356=-\357@\276\317C\254\2768\376\216\275\334a\332\274\027\240\307\274\031\244\313\275\371\356P\275\353d\201\275\3307\250<,f}\275ZS\001>\022\320\360\275]\337\312;Zv4=\322\020\260:\017o\300\275\200\022\217\276B\323\231\276[j}\275\344r\200=\346\272\223\275\362\376A>\r&?;\361\334\021\276\344\004>\275\345k#>\017t\031>\177\215\n\275\231I\267\274o\345\033\276\tH\277\275\232B\257=\265,\231\276\357\370\215\276\304\025\220\276\\dm<\211NB\276-\371\026\276\344s\334=\246P\311\275\216\017\265</\031\327\275\270{\322=p\027\002\276}\316(\276jNY\275+%V=K\273\202=\303\010\367:\323K\221\276\3214y\271\026s\031>\272C;\275\321\023\013>d\362\035>\025*\240\274+\263\250\275\036v\024>\360\371\310=\320\371!=X\335\352\274\023#\212\275p\345\363\274\267k\243\275\202\005\377\275\007\273\240\273}\272>\276F\n\016\2758\177\304\275\304/\345=\322\'\366=\2173b=\346\221\276\274\0010\245=\304x\220<\363`\317=\364F\333\275\213\370\226\275\254\312\210\275w<\373=\016d\357\273<!\213=\352\301Q\274\256\315\335=b\270\327\275\337\005\200:[3\007>;\023\370<\314\200\313=\353\367\331\275\362\"\272<\275\267\261\275}\325\253\275\001\305\334\275T\333\271\275\327}\013\276\3744\240\2751\013\t=\032Z\204\276\\\026Q\275\332\001\211=\203\353\347\275\336\272i>\367\205\246=:\265w\275t\221\t\276a\223\333\275\r/&=!+\002>X\2233;\"\304\237\2752\352+=CZ\242\275\361\261~\275\303\360X\274\\\r\002>\002\207\232\275\315\'\240=\310\312\211\275\354\235\300\273\223Y\264\275\250\277\016=\211\325\274\275\313\262\253=@\260\354<\275\352K=\312m\361\275\241\'\302=\001\027\247\275\257\000\332\275\252\232\027\276Y\214\363\275\312\367\r\276\332m\025>[1\255\274\252\023\220=(\277\266\275.;\372\274\373n\031>r%\331;L2<>\006t\006=\010\'>>\007~!>\264\316\242\275C\366\233=\274q\231\275\346\264\006>\004\354\230\274b\247\372\275\271Y2>of\003\276\343A\236\275\236\002\325\275!5\030>&Uf>)\'\346=\366\005\343\274\026\266\010>\033\2442>76\372\275G[\211\275\356\177\236=k\n\032>\305\204\211=\000\203\213\275\037<\225=7R\307\273\324^\357=h7_\274i\032\337=\3168B=\367\302\001>\345\014H\276 \207L\275\013\263\002<\314\'3\276&\203\004\276\200\037\242\275J\035\376=?\357h=\375\300x=\275\020\037>^n\374\275\366\244\205\274&\206\373=\210\236\004=\007\022D>bR\340\274\022P~=\354\377c\276\302cB=P\367\261\275Oz \276\257\365\234\2760R\253\274|\304\235\274\370\'\226\275\300\303k=)\002Z\275\207w\020\274\200wE>\355\005\246=H\247\373<J\347\304\275\217N\274\275\210\312v\275\363s\320\275\"\273\">%\300\004\276^\037u\275\274c&\276\210\013J\275\334-\305\275\350\022\316;< A>\243\356\337=\250\005\201=\013\345\322\275P\375\214=\374\347\351=\r\357n\275\274\276\t\275\261@N=\371!\003>>\351\207<\0355\372\275\271\220@=b\306\034\275q\315\035\275\257t\035=\036\027\257<\013>.>\377\267\302\273a\016\320\275\272\354\305=q\265d<\031;\344=\r\313\030>\214k\031\276\2359\265=\275)\3438%\250\001>}\242\352\275\311\023\'\274\314\034\313\2757{\014>Rc\374\275\004l\010>\0008\216<U\362\"\276K\030\003\27432\005=# \360=\003B\360=a\021\230<\215P\n>\025\275 >\2318#\275\231\014\261\275\016\217\336\275\373\027\300=\364\350\235\274\374\217\257\275\267v\213\275\255\001\274<b\347\021\276\021o\347=\204E\000\276\356\241\311\275;N\'\276\230\232(<q\355\362\275\177\022\203\274\"\204\010>G \024\276\246D\317\275\305D\225=\001\210\003\274 T(\275\377}\022>\365R\270<G\324\014\276R\217\005\276\324^\226<\002T\">\343n\235\275]\257<>\265\272}\275sC\236=\265Gn\274\341\205\203=[\236\341\275\207\251m\276{\023\233=\177^}\273E4+>\231\346\307\275o\326\002\276\225zL=\203q\212=\\\361G>K\307\201\276\031\303\301\275\344\225\025\275v\247p<%%h\274\320\363\233\275\243\304\213=\023\022%\275u\221(\276\375\265\360=\377\333%=\242$\220\273J\330\206\2751BS\274\001\r\230=\215\\\374=\351\346\254\275\364SR=i\026\327=\215C\330\275\033FR\275B\375\r=P\0326\275\217\375\224=\221\201\264;<\337\247=~\251N>\253\373\364\275\035n&>s)\253\274\277\350;<J\247\021\275\232\320\270\273\256$K\272\320\241\353<j\3646\274\234\'\003>\005X\"\275\376\367b\275J\363/=\036\2132>\232B\217\275\363p\302<\353\310\263\276\3477W=9\241\000>\312\225\301\275\n\362R=\006\006\017\276\270G\035\276Q\243\036>Q\233w>\253\247\255\275\355/\003>\314\n\016=\273\273\031>\020\332\034\275\034}\357\274?^\255\275@\307*\276&\223\010\276+(\304<\233\037\216\275S&C=\253U\242==\313\213\276xp\212<j\345\033>d\304\026>\331\3661>\253U,\276\274*L>G?F>gY\006>r\256\262=\\\247@\276\035C\253=\205\004\022>\352\356/>\374\\k\275G]\313=\363\235\206\275\215\263\032>s\333\205>\302I5\274\310\270\213\274\275Qg\275\265\344\310<\331\035;>X\315\353<$\"==\010:\324\275\214\246\326\275\027\304r\274;\230\004>}\'8<L\271_:[^(\275\376V7\275\365\246m>\242^\021>\034\\->n\004B\276v\373:<O\343\366;L;\025>\254G&\276\261\005E\276\207\2160\275\255S\301\275\365\234\037>\007\'v<\367i(=\246C(=\'m\237<\000\311\300=P\223\017>\017\246_>\3614\206\276\333\246\357=\035_8>2\241^>\314\373\314\275\317\177B\2765\316\235\275\370<\310\274\371\223\306<\323t[\276\230\023\372<)\200\335\275\322\332a>\234\227\300=\034\256\254=\307T&\273|\314}\275Qt\377;V\372\210=\371\374\232=aJ\027\276?g\n\275\276\007\361\275k\362\270\275\\\275\262\275\264\323\341\275\216\207\217\2750\236\320\275\256v\206>\321\271 >\340\255\266\275m\256(> 5\006>\2320\207\275\253\214<\275\363\253\215=\361\250\201=vj0\274\224\023\242\274A\365\203\275\030\333\363\275\017\353%\276\222{\330=\374\020\372\275\315g.=\257\035%>\274 \364\275S\201\202=\365d\236\275!<\376=c\215B>\275U\004\274\360\211*\275\310F\251\275\225\317j<\210\352\235\275m\227\263=\002\014\226=<\350\002>n\3401\276\262\352t>\031\320\030>\240\372\017>L\326\201=|\250\003\276\234[\377\275\034G\231=\312\205j>R\245`=\324\014_\276\002n\317\275o0K=\271\205\030\275\037\360h=2\226E>\207\234H\276\341\004\001>\353\361\026=uQO=\0266\304\275\206\251A\275\244\022\240<\207\363\232\275>\314\231>\311\030\372\275F\305;\276\214\274P\276\370\247\001\275\205`\302=r\032/\276\210\313\022\276\263\276W=:\032A>\027\371J=\034\"w<\205Dm=\3457\353\275\361\345\334\275\325h\202<\263o\242=\300\330\263\274\267F\211\276\3521/;\216\267\226\275\215\006N=\305@\237\275UG0<\000\332\273\275\202X\363<\207Hw>\253\234\310\275\237\255\354\275\0040\277=\374\335O\275\305\343\341=\002,\313\274k:\304\275\234\357\225\275y\027\305=\373\211\006>2\375;\275\363\201\301\275\321\345\341;(Z\r\276\222\373\231\273qo\212>O8S=\001T\307<\236h\013\273\013\262G=a\246\310=I\037#=n\202\331\275\207\334\325\274`\020\230;\013s\000>\351r\240=!\275\004>Q_\344=M)\020\276$\377\204>\312\314=\275\320\207\'=\004\274\277\275\036m\030\273f{\321\275U\347.\274\236{\322=Gh\262\275\003\251\034>E\231Z=\371N\243=\"l\002>\277\355\016>z\207\010>\265\332\214\274<\355\312\274\247p\321=\367\357\336=\341G[\275x\017C\276#\0307>\273\343e>k\246\261\275H\375\340\274\271\342\003\275\0202\372\2752\237\204\275\335K\263\274\244U\317\275\035\271\232=\2202\343=\3645\212\275\276\237\223=L\0334>V*(>\267n\014\276=\363\346=\277\322\300<K{\006>H\206\027=\271o\357<\220d3;M\212D=\004\333\247;\266\223l=Z;\000>\277\016\300=\300\322\270=\270\264\022>\317A\010\276\211n\325=\333\355\340=(B/;p\320\256=\037\305\271\273\301\010\214<2\266\032<\202\316\302\275=\024\352=\002v#\273\245D\236\275\324>?>\330Z\001\276\302t\301<\001\370\240=\237~\022\276x\337\035>\224<\006\276\030\266\033>\266\257\204>\263\365\244=\264Pq\276.!\t>8\360\334\275b\304\372=l\331k\2756\035\326\275\034\027\341=z\343\013>\266\220\300\275\026\233\273>Vc\305=T\244\351\273\316ex=\014\305\207>\2314\345=\351\251\337>\021Qg>\232\264\330\275\260,\300=Uj\004=\006\013_\275\370\307\312=\003\203+>\004d\023\275\250\216Q<\325E2>\325\374\347=\245\3711=\203\254Z\275\360NO>\273\306O>\312}|>\275k\330<\204\203d\276MT\236\275\327I\337\274g\225\233\275~\231\361\275\240\363\304=\024\0306\276\323\3457>\312\340)>p\226\274:\034\255\007>\262\322j=\227\025\033>\221\362;=G\321\353=B\363\027=\222\376\236\276;\326\300\273v[\321=V^\225>\301\017\263=j\234\346>\200\247\343\275|\306\233>3\324\223>\204>\246=\216\020\203>d\003\017>\275\341Z>\351\005\313<?\002\261>\206C\000\276\353\2458\276\3559\337\275}\033\200>\226\266\233>\316b*\274\2510\217>\266\010\002\275\304\370\271>\377\230\210=\327\0048>\331\220\244>\357#S>\n4\214>\207\0044>\247\320F>\2516\034\276\305\274Y\276v\326\001\276\201L\237;\006\361\000>\314\200\246\274\202\276\242>u@!:2\010\033>\220\343Z>\336\2349=\371\220\362=\242\224\016:\003\276p>\321\001H\274\330V\234\275dl\335=F\037\352\275<\272/\276\001\001I>\233\332\255\274n\361\034\275\321(\355<\262g\226<\277h\t\276\220x\304<\367\325\320\275;\t@<\245\231\253\275B\235.\274\215\327\t\275\3340\231=.1\236\275\327\240K\274\311\310\375=\231\357\256=\245$\002>\2008t=c\225\333\274\\V\255=\312\265\364=\341.\203<$\307\222\275\344&W=l \030>\023\271\206=m\2406\275(\340\251:\314\322\033<\331\2733>\250\363\010\276d\364\354=\0008#\276\351\021\211:\372\020\245=\312\2361>\233\305\333=\021\352\365\275h\367\372=\361\206\274=\347\331B\275\357\345\270\275\200\025\371<3d\306\275\020\227K>\353\3762>\001O\275<\350\225\311\275\333W\014\276\305\006\355\275\232u,<\355\205\362=A\374\257=]\257q<\233\215\003<*\321\241\275\335;\372=\215q\312\275\324\322\231=1\300\217=\017\275(\275\277\357\037\273\003\000\246<<\270s\274\316v\223\275P\2220=.\340\245\275\220\013\212=\253R\014\276\354}\240=\252\246\021>`J%\275\004\2755\276\377o\316=m\020f\275\212\027\335<\202\213\336\274\337\374\352\275\013\344\031;\' \220<\260d\330\275Y\203\371\275\374\013\256=M\210J\275\240y\311=\303\214u\275\214\231\232\275|\345\201\275\304\325\023\276\225w\035>W\210\022>(\304+>\206<\241\274\332\224\362=IN\004\276\337\375\321\275\325>\237\274B\325\027\275\237\361\020\276U\234r\275WVk;bV\342\275_\221(\276\320_4>\334\203\017\276\214!\353\275\000\307\200<\005O\004\276\037\267^=\230\310\337\275\234-\373= \225(\275y~\025\276\267\331\307=\216\261o=\363cL=\367\2363\276\202\306\373\274\222M#\276\213y\271\274\234~\232=\241E#>\223\334\217=\212\n\335\275\314\315P>!t\217=\322z\r>\251Z\205=a2@=\224\214\307\275\356\227\037\276?\244E\272\377\353\001>H\346\352\275Ul\034\276:l\002\276\370m\372;\n\362\n\275r\245\321=0\205c\2749O\333<\313\353Z=\333b\365\275\213\327\371=\377c\225;,\226\354\275\322;\007\275n\001\340<\322\034\376<\3224 \276\354\266\t\276*\246\007>\004\'5=\271\201\363=\311\275\227=\341I\334<a\"\021>\332\335\004\276\365\205 \276}\255\233\275X\341\216\2752\317\306\274\227e\313=\020Y5>\361\024\236=\352\233\310\275^j\250=\363J\240\275t\273\030=\357\366\002=\001\206\232\275\326\305\333\275\342==>b\375\240\274\264\272\001>\320\214)\275\365\265\302<\337\236\350\275\370\272*=\023i@=\371Y\346\275\262\021C=\306\356.\274\321\177\024>\335M\275=\3377\230=\275EU;P<\260\275)\020\374=\317\324t\275\252\277c<\267:W>\226+\350=\311\303\267\275\251\215\355\275i\252\226\275jKk\276<\316\306\275(\307\376\275\223\234&\2751\314\032\2728\346 \274\252\3416=\326i+\276\240\355\343\275\'\307\005\275-\017\314<\351\033\235\275u9~\273\327\354\351\275{\367\222\274\223W\251\275#(\223\275\247_\226<\327\227\317\274c5\301\275\253\037\030\276\347? >\360/\355= \207\226\274z\311\213\275\305\260:>\377-A<\037\024\264\275/i\024>\350\250\300\275\017V\n\276\335UV\274.0\336;\nI\357\271\272\224\214:\2511\026>B\000K\275\333\001\344=K h\275G\237~\276\322\352\255; %\266\275_&\352\274\322{\023>5\375h=\256\220\023\276\213/g\275\227!\201\275\n\363\317\275\032@\251\275\236\376\004>\271\362f\275\353NG=\266\3561=Q\'\026=\t\307\222\275\037\254\253\275\324\200\203\274\265\030\247\275PB\033>F\304&\276\365\370\016>8\333;<4\330Z=\210\215\002=\377u\362<~G\261\274\256\340z\275\376\300\014\276\272\002\231=\001\270\303=\326\214\276:N\207W=i\325\\=\352\371C>N\217\027\275|\023\001=\211\222\311=\230\301\207\2723\031\024>Dz\354\275D\272\031\276\t\361\000=\026\267\303=\033\242\005\276)p\227=`\330\344\275\006\237\013>O\204}\275m\375R>\254\313{\275\214\'\032>\347\221\006=\300\333\372=UgM=\016i\354\275\366=\367\275\236\237\033>\224\262\226\275\331\232\030>IOJ\275\357B\001>L+p=\356\255\212\275J\212\n\275\321\023u<i\230\232\274\360f\r=+\322\242=\322\374\253;\341\0348<\344\030\326=-\020\276\275%\322\276<\014\377U>I\205\367\275K\'\327\274\027\241\004>X\302\377=\325\266;>Yu\326=>\333y=f\3333=\033\202\315=\211}\376=\3278\216\275W\216O\2760\004\274=\3000[\274\037C\212\275\332\264\323=B\232$\276ZdY\276\001\365\'\276\340Z\364\275\2506\331<\242\361\014\274s\333\305=4G\372\275\305\366\204=\260\325\307\275r\250\336\275X\036\035\276\347\264\321=\263\322\266=\233a\306\274CP\230\274$[\204=\215\002\302<\342\314\344\275\241\332\020\276<<\231\275#\264~<\265\r\323=4U:=r\243\346<\272yx={l\353=\247\223I<\276\343\303\275\262\346~\274F\020\215\275\263 \316=\331}\311\275\224{(\276\326\305\271\275\216\276\006>\360\322?=]G\323\273iOi\275#@,>\030\330\005>]\311\326\2759\260\227\275\307\r?\275\342\207\333=\3410\221=\377j\027\276_}\316=\261 \311\275<\357\020<\033\007\266\275\tz\024>\335\321\004>5\327n>\322\312\005\276\277J\010\276jn\n>\353\220\t>(\251\270=\355\270\316\275\266\222\014\276&tt\275\350\212\027>\017K\274=\270\031\260\275b\357!<\240Z\346:\263\200\337<\214FT\274\371\211%>\"/\241\275+#\r>\022\251\017>{\302A=\346\016@\275\376\006\217\275\364\351\264\273\237\312\251\275RF\300\273rw\255=\375SQ>\373R3\276\311k\016=\203\242%>\203\352\344\275g\016s>\257\002\245\276\256\004.\274\262:A>\313g\253=]\274\244=\307q\357=\027\366\274<\302Q\234\275F\321)>\341\222\346<\226\005\331\275\373\341\244\275\\<\032>\262C\030\275\333\375H>a\376\n>-\256\217\276\2635\274\275(\363h=\006\221=>J$d\275\206O\230\275MV\317=/\352H\274\230r\003>$\314\003>\317\227r>we\352\275e(~=\314\335I=n\237\367=O\217\232\275\210\025\226\276\2663K=\364\212+=>\t!> \251G\275\016\315\363=W1\211\275H\005\231=w\026/=\311\323\";\220\255/=\036\372Q\275\260\376\007>.m\271\274\216y\206=\302\203\t\274\255g\177\276\244\276\276=#\345\262\275\037\000h\275\317\352!\276\253\220,>\203\356W<,\354j<\254\247,>\262\330\r=<+\337;\263\370=\275\310\326\334<&F<\274\354\032K>\245\263\352\275r\241f\276\207\024H;Zw5>\232l\035\275KiF\275\256\014\033>a\305C=\033\275\005=\305M->$\177S>\325`U=)\233\013\276\325D\007=nV\311=\304I\237=\317\326\346:&\201\302\275G%\233<\300\220\034\276I\210\362\275=c\363\275\3356\021\276e^\237=\256\302\243>\231\335\237>\245\366\250=\230<\237\275i\276\215\274 \005`>,,\350=\307\313p>\022wA=\335\260\241\275n\260\223\275\310O\362=*\244\271\274\t\374\337\275\347z\">\273\266\241=\014\331\255=\325\233\361=c\266\013>W{=>E\306\306\275_\266\347=\014\361\260\275\001\t\261=\272<+\276^\337\367=^\251\377=?\344\342\275\272\004\230=\316!\031<\031S\372;\221=\236\275\267\301\364=$\005,>\252lf>`\037!\275\361\014x>9\227[>\353\005\205<\346\263\205=\314\010\014\276\351f\356=\352p\253=\000\343\006\274\253\016\365=\357\224\231\275\373\237W=K\261\006\276^\201\216>\224\217a>\302\276~\275\252\376\364=,\035\205=h\032\235<>&%\275\313\345J>\342\324\013>\037~\200=\"\337 \275,\221\t>\210\306$>\266\325\023<r\331\347=\026\201\313\275\2156\223>\356\375\263=\337\024T<,\245\014>P\304\026\276\306\324*<\323X,\275gG\227=\243\003\001\276&\212\323\274\354\000\235=Q\311\017>\337\026:>WZ\273\275\020:A\275F\330\n\276\364\226R>\312\335\375=^\243\327\274pM\324=d\225\250\273A\224\204=E\232\017>QC\206>\030u\324\272\t\236\253\275\275\251\361=N\023\027>\357\377\211<<N\327<\203x;\275\234<\010>\203z\335=\333\037\277\272\363\034\377\273\r}\354\274){\033>\275\272(>\010\311x\275bA[>\342\031i=\262\023\351\275\230\310\330\275\212\246I\275\343\365\031>\262\250\305\275I\275\241\275K\321+\276\250\323\251=\025:\372\273\311t\216=w\025v\275\255b\242<\2719\272=\263\204\227<\'\037\213>F\363_=9\227\347\275\317V\024>#\330\354\275~\316\354\270\255LU\275\333\005\365=\017\325O=\020\367\371<\232=\254=BZ\032\275\351\272,>\353\335\243=\331\254\021>}V\205\275n}\270=K\037^\275\234}\377=\307(\026\275\337\027\275\275\332\343\352=\031\\!\276 \366\003\271\014\277\331\274]\242s>\362\237f>\022\245\022>\310\312\005>\375\302;\274\361\262\347=\321r\247<\314\337\031>\305p\204<D\375\340\275>\030\311\275\004\277\">\232\213D>\251\202\257\274OT\276\275\036\256Z\275I\270\351<R A>!\253\242;\260\'?\275_\335Y\275Et~\275\263\337\032\276\222\">>d\266P\276K\246\306\275\370\316\224=@^c=\213b\365=\310-\322\275w\250\365\274\255\374\360\275\037~\337=\t\270R>z\333?>\216|/>\372\033f=\203\260W\275\313e\227=!\223\210=\255\326D\276\004}P\275\013\231\213\275\1774\030\2766\251\021>\304\203\245\275^\360\337=\266\301\031>SH\016>\345\244\246=\307\312\270\275\360\004\226=\241\373`=O\337\r<\351\267\016=#G\211<-\345M\275\314\301|=\357\271\366\275&\3754>\177\210h\275\023\277d\274\022{]\274(\356\322<n\221\343\273`\"s\275Fs.>j4\374<\'\331,\276\346R\254\275M\260\034\274y\230\025>\320\354\241<\247\352`>\355\022\327\273\275\324\022>x\006$>\316v\014\275\375%b>\343\334&>aX\025>\302\033\265=\352\373\355=H\335\206=\333\365\225=\312\026\022>\032\217\013=Kt0>I*v\27415|\274g\022\235\275s\324\315\275Q\242\246=\216\362\220\275wyU>\242*|\275\235,\000>I\202\261=n\024\350\275\340\tW<\026?Q=\266n \272\212R\245>N\3467>>8\304>\030\243\350=\276\270N=D\006u\276{\340\307\275]\303\013>\236N\032>jt\246\276\225s\362=\274y\237=bz\215\274\223\003J>O\242\224<4\251\013>#\200\250=\201\251J=\277\236\320=\272\014\n>\340f\213\275\204\364\223\275\303\373\'<\"\305\271< \2727>\033#&\276B8T=\330N\246\275<\006\267=\303\323\002\276\364\342\202>*\271\004\276]pU\274\205\365\031\276\266\r%>\223SI>\rly=\315\\\353=\337O\220\275\027\206(\276\252\205\263=\033\311\032>\367@\275\2742\212\324=\177e\315;%\226\205\276|),>Bns=q\022\264>i\347\217=\364OP>\035\212\231>\000\340%>\212\220\201\276\002\276\212\275\302O\331=>\232x\275\337\027\203\276x\226B>1\200z>6z\355\275\275\317\200\276\332\2478>\006\275,>!z\231=\372\301u\274+]\261>P\025\213>\350\022!>\310m\026\276S\324\233\275\302\307\247\274c\254\025\276\200L\273\275x\n\325\2758\372\241;f\274o\275M\2521\276~\302\037>\336\226R=\277C\300=\316\227p=6\027:>[\371\243<\330\310\345=!\217\214\275/t8\276\212\037\r\276\322\347\304\275(\253\034\276\324\262\032=\314\016\3118BJ(>2\026S=.B\t>\306f+>\006m\215=\004\222\330=HR\216\2745\345\210=\035\034f>.0\276\273\016\177\260\275o\2222\275\266\374\227=\017\300D\276\037\031e=\005\271\264=a\014\316\275r\035<\276\244\026\231=\220\233\340=\264\264\363=?\231,\2760\372\036>y\210R>\'Z\352>lG\340\275\3067n\276hY\343\275\r\367\365\274\342\230\274<;v\213\275\276\242Q\275n_\032>P:\225=$\007\237>\026\201\n>7\201\010>=\361\367;e\277\033\276\267}5=\027\022\250>\004\374i=\351Y-=\207V\236\275\374W\221=\207\271\\\276E\210P=\177\342X=\2065\032\275\206(G\275\346h\230>\317\255*\275\311\017\320\275c\2272\276\350P\177\274/\302\\>\267\233-?~M\204\276\315\023b\274\237\006\230\2757i\237\275\366\262\316\276\306\240\251=\200+\010>c\206N\274\010\013\261\275\342\235\251>F{\377<;D5\275\362\310\243\275U\344\222\276\302\310\022>\357\017H>\234{)\276_\243\016\276\204\004=<\261\235\003\276\335\\\272\276}\356\220=baE>\352\210\210\275\254\333I=\233Dp>\022\345\221\275\353n\325<\324I\304<I\036?\2769Z\311=b\317\024>\313\331s\275\375z\370\275\005\237\214<\227|\001\276\037\226\267\276H;>>\0007\005\276qy;>\351_\020=\000\323\264><\303\237=B\272\334\275\026\304l\274bO\241\276\222\"\342<[[\263=~V \276Uk\277\275\3154w=\033\000\311=M\"\252\275\373\307.>\247\312\203=\357\no\274\334\260w>O\017\306>jN&>Xn\341\274!5\203>U\201\276\276R\341\376=\373\342$=\257\001\005>\342q\n>\216`\243\273j\013.>\004\2534\276\003a{>X/+>\\\311\263=\242\225\301=\305\230\030>\342\020^=\031\037\001\275\261f\236>\256\t\\\276\244\327\216>\354^\022>\222E\031>R\372\322\274q\360\243=\265\262\273=n\240\020\276\tN\033>\372Pa>\325\217\351<\246\037\363<\346\277\356=E\313i>\\\'\251\275\014t{>X\330\217\276EZ\275<\273y\273\275\353Z\201=B\024\244=\323\013\027\276\304\007\323=\354\306\345\275_r\246>*\006\024>7\342\240=\334uK>\364u\005=\334\013\266\275w\314\372\275\010\225\262>~\361\244\276\227\316\001\273\0058\346=&\300\355\275\236\007\033>\244/X>\317\245\025>\003\257\213\276dX\202>XDC>\206Q\304<>\0209>\006\214\244>\024\347C>=W\336=\277\262\251>\021\342\203\276@\003c=U\032\211\275\014\231\017>\343UZ=\264\336Z\276I\014\221\275\n~\036\276\342y\224>\262L\010>Y\344>=\317\232\252\274G\366B>4\025\220=H\021+\275@\021\265\272\220\315%\276r\222\217>\363\223\332\272\270\236.=\313\264\343;U\013\325\275\211\220\013>!\226-\275\2519\237=\"ut=&6\340=\r\243\213\275\214\250P>\240\364\370=\217\316\025\276\212\204s>T\tc\276\215S\273>:\274\230>-\237\341=\271W\007\275G\2470\275\311\222->d\305\310\275\255\261\211\274\026F\347=\365\330%>\t\217F>Y\n^>\202\277\267=\2404\007>\201zi\275\200\221\025\276\234\343:>J\204\354<U\200\014>P)\206<\232d\017\276\335g\237;r\006\324\273\236P\273\275\020\t\001>\356\032\025=\253J\202\275\320t=>Va->9\316t=i\327X>\r4{<{?n>\314\304T=2\215\201\275\013;\027>\314()\276\"\303\031>\276_\257=\217\245\231>\034QD>q\251\003\276[\241:=\336\214:>\353\223\252=\224\230\016=\001\331\365=U\303\313=\275\031\244>\354\247\273=\311\302\307\275y\225\365=\222\014\037\276pU+><5|=\274\020R>\277\340S>\t\2753>v~i=\341gW>\025\225\010\276sU->sb\362=\207%\014\276~n\010?\0351f>FQ\t<q\212R\275\204\"C\276;\271u=x%\307<\246\263\245<(\205W\275\275\243\260\274\267N\233\273\307!\200>h7I\275\335\034\305\274\303\031w=\340\377\214<\r\246\021>\322W\247\273\262\236\025\276\355\303\264=\033\367\250<\241\270\254\275p+\007>^\360\266=w\271.>\216u_\274\212\276\031\276\030_)>\231U\007>\203F\373\275\026\036\016\276\177Y?\275\210\233\276>\224l1>\370p\007\276\020V\033\276\372\304\031>\341\\\034\275=\202;>\370\300\021\276\370\333\210=R\243\">\240\352\314=;\360\250=\303gc\275-=\332\275\270~\277\275\"\227o\276\353\344\022<b\2177>W\334\365\275|\0035\275\035\325\340\274\\\346\023\276W\177/>\026\020w<3\031$\276\241$\270\275V\377\225=A\223L=7\334\220\275\355\355\017\276\265P\";\315<\025>\235jF>\n\300\327=\r\207\000>G:\030\276\317\034\222=\026\313m=\262\350\'>I\001\031\275j\261\017\276gJ\342<\026\260J\276\177\260F>\253\273\037\276Wz\303\273W\320\241<*Hf\275\324\334\252>\272\017\233;{\275\221=\006\'\350;\202*\360\275\264\210\t\2756\362\211>\342\204\007>\225g\005\275\362\276.>Zt\232\276e^\025>G\356\223\276FG\r=\243[W\276\324\023\\;8b\362>W\324j=gQ)\275I\226\212\276\333\364t\276N\327\271\275G\271<>\341 \007\276\235\351M\276\000\215P>\314gm\276v\234(\275\336N\206\276\305z`\276\323\037g\276\243h\205\274l\024\026?}|\032>)\022\315\274\336\034\242\276s\253d\276\301\233\246\274\204Z\273=\340\221\267\274Hx\302\275FW\376<\017\\\250\276\272\321\017\275?\241\226\276K\320[\275\225\005\202\276\217\"9>\337U\035?o#8>\326\257Y\276E?\022\276!n\020\275 d\006\276\253u\245>\311W3\276\t\354\227\275K\272\r>\243\272\217\276S%\223\275Z)\357\276\020\300Z\276\322\331Q\276\242\030$>OU\002?+\\\211=\274\373\014=\035\260O\276\262\013\234\276#1\257\274\243\377Q>\037\213#\276\246sn=\351.\010>\344\307O\276\327\253<\275?\270\322\2761G\247\275\'\205\237\276\216\376i\273k\375\354>\367k\032\276M\366\200=\177\226\353\275\006{,=x\345q\276Z\315o>\'\343\253=\006k]\275P\036;>\256z\255\274=s\357=\355\265\277\276\375\366\202<x%\317<*Z\246\275G#\n?\2126\247=8\340\335=#*\330\275|\276d>\252\355\354\275\2479\224=\030)\212=\001\224\346\275\355\334\017>\330\272h\276m]\270<\206\275\304\276\205)\223\276d\266`\276\242N\203\275\027\017\263>\275_\'>g\216\244\275\357\245C\275k\351\312=)\304\223=y\306\252>\3476\201=6\245\367<\272\244L>s\214j\275$\033/>z\364\203\276\274\227\305\275W\\\022\276\263\261\375\275\367\205\311>\251\333\310=\266k\034\276\210[\214\276:\017\254=i\226\220\274\362\013\321=\373t\277\274\014\035{>\006\004}=a\2129\276\344R\253> z\034\276)\035&\275+Z\362\274x\342\237=\032\311\251>\023\237s\2750\2262\276\0011\014\275\033\202}>\320\360\200\274\216\324\216>\331\013*\274s\371F>\264\010\037>\353\375\005\276>\341\025>\\\216\352\275*(O\276YE~\275\2072\010>\205C\207>\215\266\300<\357$\364\275\204\277.\276mm\245\275~\333\023\276\311XY>\016IO>\250K\022>4\331\306=\312\2721\276\212/g<r\325}\276\026\315\034\274\276\242L>\222\032\020=\300]~>\257E\273\274\016V&\274O\363\333=m\026\257\275\3303\347=\261\226\201=GU$=\222\273\032>I\030q>\251\312n\276t:+>\250\257\277\275A/\247:R\246\266<U\2611>v|\223=\313\323y=\242R/\276lc&\276\240\272\026>\204A\270\274\271\360\020>@\225\314=\016\256\031>\203Bd>519\275\0132\221>\324z\234\276\345l\241=\312I\210=\005q\021<1lT=>\220:>>G\311\274\257\037\006<H\004T\275\366,q=\336e\263=\246K\213>\232\014C>\210\277^>\335\030\227\275{\321\246\274\214v\223\275\254\315\345\275\325\217(>`\350\244<\341\253\003>\347\331Y\275\025\003G=eME\276/g\324\275\353i1\276\264w\266=X\312\034>\254\216M>pq\220>\215\236\177=\026\217$>\253\245\223\275\253\277G\276\247)\365\274\200\350\020\276\361\340v>-\227 >\322#\335=\256\270\002\276\224\300\002>1\017\270\274\230\270w\275\333\315\005=D<X>\227u\250>\207\312\235=\316\314\374\275\200\347T\276\313\350\002<\201\316e>L\271\246\275r\267\310=\227\277\375<\314\300\013\276^\023\025>\206\351d\275\351d\214;\260~\243=\245R\300=\\\211j>\305\"\320=\364\334\214\275^\302m>2=\000\276AE\017=\233\323D<\234\344\010>+\343\200>\036%0>\261?Y=\335\272\246\275\364\t\027>\321\243\034>\300i\200;:E\200>\336\370<>S\216t>\016^\347=Vog>=\204\007=t\205\227=\262\013\210>\301\r\023>\337.z>y&\253=\364\315\330=Y8\226\275\302\3542>>\001M=\306F\220\274X\034Y><9\233>[\2047>\277\326\031>\363G\203>\200\036\016\276\016\006\336=\356\017\372<\r+=>\264\020\232<\207\t9>\314\227g\275\205\215\341=\254\202\261\275N:L>5\203\032>\275\027\256=\374\346u>z\211S>\\Z\223\275\226\002\321=tK\300\272\345J\240<W\232\243>\311\275\346=+\237\'> \326\013\273\236]\027\275!\356\010>\376\004\332=\026\211K\274\215t\310\275\255,\016>\217\354\272=\341To\275\353\271\327=\272\300B>\035s\211=\340i\224\275\r\037\314\274]\353\033\275\376\010#>Qw\002\276\275N\202\275&\033\036\274Q\3631\274\324Eu>\227S\244=\0037\331<t\252\027>\345\336\037>\020\223m\275,\326h>\013\201F>q\367\307=\315,\r=\036p\344\275\026\2452>\013\237z<\335:\253\275\253\000\024\275\347Q\350\275\366\036g>\3736\017=\221f\236=\356\245F>\034\370\323=g\365t\275\016\301+>8\350\260=\334&\300=Id\344=\377B\356=\345\356\364=\341\217\014\276}\326\240\275\t\014b\274\240\177\307=\307\264\246=\2776\'=c\003J=\304g3<@Zn\276fC;>\2177R<1\032\'<\227_0>\305\224\216\275\202E\013>x5P\275\333{>\275\235h\234<%\010\031>\n\317\"\276\223J\226=n\354\336\275\241\032n\275\207\004\003>\200\270\210\276\362`H=\273>\272\275|g]=\326\303\350\274td\005>\336\241#>\245fN\274,\020/\273\036\325\375=t\'w\275V\376\347\275\262Q\037>w\n\302=\324f\310<#\333[\274\254\325$\276\366\352\322=\227O\350\274+x|>\353\343U=D\233\330=\334+\356=\214\226\025=\303=+>\007\214p;\027\234\227=t`T\275\237\270I>\304\230\n\276\220\3630\275\242\332&\275\027\025\002\274+\342K>\rq.\276\313\366\021\275\263A\253\275\375\tP\276\323\205\347=*_\240\275\261\343\"\275\037\276*=\367\323Q>z\250\"<\323.\344=\020\004k=mW\006\276\023o\270\275V9\023\276*\363\230;W\210\362<z7\250=\2722\311\275\323A%\276\342l\014=\323-\240\275\261\007C\275\201N*\2750\3011>\345\262F\275J,\317\274:\205\266;\0232\277=@\225\035\276\234X\217\276My\225=L\317A=\000v\254=\233$\353=\266\313\273\275+m\274\275\326\326f=\215\225\244\274\321\2438>Qs\033>\353\305\000\275\261\245$<\371n\n>)\330\237\274\275\207C\276\356\224Y\275\325\253\013>M?\250=\031\033C<FP8>j\254\211\275\231\244P>H,M=\361\272]=R\006\032=)\201 \276\373\204\336=\344u\305=\010\022\213=\223\271\r\276S\2734\276\351;\202\276A\242\366\275\215\236\264=\210G\026>\356\0227>\377\264\247=\246\255\233<\302h\313\275dx\327\275\000\221H=$\261\227=\t\274\005\275E\032\226=\025 w\275\265D\331\274o\3263\275\032M\003\276Eq+\2731\267\267=f\244q\275\032LF>\'\246\301<D\227\235\275;?\315=\r\370\261\275Kf\360\275~c\202=\351WG\275\313\364\036\276E\r%>]\310[\275N\220\\\276\244)\210\276\353{\204\275\262\263\363\275L\313K\2747}\277\275b\257\354\274\006\222\321\275 \266\375=\025\331\277<\031\346F=5\334,=|\r\202=c>#\276W/\320\275\263\236\313\275`\002i\275\260G\247\275\254\362\266\275l\211^=\247c\'>j{\305\274\305\351\265\271<5\362=\234\375\">\375T\335\274\240\241\t>\370\370\'>\247]\275=\3325\t>\177G\000>t\226\357\274\347\265\235=\036\277|:\365\257O=\361U\n;\264\031\333\275R\352\003\274u\272\265\274\367uQ>\273\242\003>\364\311\217\275%\253\034>\371\247\346\274Q\032T=\272x\342\275\231\361A<K\350S\276\2502Q\276\355\005\326:\025\337\322<\200/\306\275\306|\232;)\233\177\275\225\363a\275\324O6<\241Q\210=\213\336#<U\377\264\275d\366\234<\275O5=\212\346o=\204F\037=B\261\026\275\220\345\370\274\361z#\275\267\270L\275\307e:\275\356Z\205<\301\2204\275\322[\027\275\261\014\373:\'\3155=\276\256\024<\235\263e\275\226\201\271<\360(\350<\265}\347\275\223Y\022>\320\004?=\357\034(\276\241AI\276\367kH\275\250\033\245=\234\332\312\275\206\364\000>\277\220}\275F\177\373<]\350\243<k\200\260=\277\274)\275d\335\022\276\030:\346\275\261\357\372<\355/\216<r\020\334<305\276w\363\241\275M\025:<,D>\276\267\300\004>k\203\305\273\005\254/\276\272q#>f,\255<\206\370\021>a\026\007\275\243\035J\275\374@\266\275\355\345\013\275\030\215k\27508\326\270\367\217\003\276\263/\220\276v\361\354=\336\202V\276\220U\010>\337G\212\275\320\350\025<\266\\\014\275dG=<o\334\270\275\000\366_=s)\242\275\364\003\"=\237px\2758\237\027>\026\2305\276e\310,